<unk>	0
<s>	0
</s>	0
▁,	-2.57587
▁.	-2.87079
▁d	-3.5773
▁und	-3.59775
▁di	-3.63253
▁ein	-3.6968
▁si	-4.07775
▁das	-4.1128
▁ich	-4.13027
▁ist	-4.24611
▁wir	-4.29128
▁in	-4.36007
▁zu	-4.42474
▁dies	-4.68018
▁"	-4.85285
▁von	-4.87772
▁nicht	-4.88287
▁dass	-4.88662
▁hab	-5.02977
▁mit	-5.08508
▁wi	-5.1479
▁auf	-5.20539
▁sich	-5.2392
▁ab	-5.26913
▁:	-5.28914
▁war	-5.30801
▁sind	-5.31675
▁man	-5.35062
▁für	-5.36028
▁?	-5.36967
▁wenn	-5.37302
▁was	-5.40497
▁als	-5.4497
▁ihr	-5.47501
▁so	-5.50667
▁an	-5.5208
▁all	-5.57258
▁um	-5.60501
▁im	-5.63249
▁uns	-5.65692
▁sein	-5.74407
▁also	-5.75492
▁könn	-5.83129
▁od	-5.84569
▁viel	-5.85474
▁werden	-5.88515
▁hi	-5.88647
▁ihn	-5.92506
▁aus	-5.92729
▁hat	-5.92974
▁auch	-5.97976
▁üb	-6.00851
▁mein	-6.02889
▁jahr	-6.03007
▁kann	-6.03491
▁nur	-6.0702
▁dann	-6.07537
▁sehr	-6.07833
▁ander	-6.08677
▁wird	-6.10235
▁mensch	-6.12372
▁mich	-6.18465
▁kein	-6.18493
▁gibt	-6.18727
▁–	-6.20087
▁seh	-6.2155
▁wurd	-6.23816
▁unser	-6.24661
▁--	-6.26283
▁etwas	-6.29025
▁noch	-6.30441
▁nach	-6.3273
▁hatt	-6.33974
▁mir	-6.36576
▁jed	-6.41144
▁sagt	-6.44156
▁vor	-6.44209
▁bei	-6.45102
▁mehr	-6.45318
▁ganz	-6.49936
▁mach	-6.50144
▁welt	-6.50864
▁meine	-6.53327
▁weil	-6.53874
▁zum	-6.55593
▁gut	-6.56735
▁leb	-6.57687
▁wirklich	-6.59122
▁würd	-6.59805
▁da	-6.64442
▁leut	-6.64988
▁nun	-6.65515
▁ding	-6.6671
▁imm	-6.67403
▁einfach	-6.68146
▁erst	-6.70871
▁durch	-6.70988
▁sag	-6.72039
▁jetzt	-6.72605
▁tun	-6.73173
▁am	-6.7353
▁wiss	-6.74513
▁denk	-6.7631
▁art	-6.79296
▁zeit	-6.81209
▁könnt	-6.84667
▁neu	-6.8674
▁denn	-6.8767
▁-	-6.87725
▁müss	-6.88719
▁groß	-6.89863
▁zwei	-6.91391
▁du	-6.9142
▁einig	-6.92913
▁macht	-6.95345
▁arbeit	-6.96628
▁bin	-6.98081
▁frag	-6.9903
▁damit	-6.99246
▁kind	-6.99864
▁wo	-7.00424
▁klein	-7.02028
▁vielleicht	-7.03048
▁zur	-7.04989
▁bis	-7.07335
▁selbst	-7.08039
▁glaub	-7.08141
▁ob	-7.08141
▁möcht	-7.08411
▁sollt	-7.08647
▁mal	-7.08715
▁teil	-7.08783
▁problem	-7.096
▁geschicht	-7.10183
▁geht	-7.10874
▁tag	-7.12129
▁muss	-7.17275
▁heut	-7.17756
▁schon	-7.19818
▁frau	-7.20197
▁dank	-7.20731
▁warum	-7.21344
▁wenig	-7.21498
▁seit	-7.2364
▁weit	-7.2364
▁konnt	-7.24034
▁wied	-7.24629
▁tatsächlich	-7.24668
▁geh	-7.29182
▁ja	-7.29892
▁welch	-7.29934
▁wär	-7.30102
▁genau	-7.30607
▁davon	-7.31114
▁letzt	-7.31539
▁dort	-7.33171
▁bild	-7.34478
▁ide	-7.35448
▁beispiel	-7.36516
▁paar	-7.37596
▁drei	-7.37778
▁lass	-7.39423
▁;	-7.40024
▁natürlich	-7.40117
▁find	-7.41943
▁darüb	-7.42132
▁wollen	-7.4275
▁gab	-7.42893
▁lang	-7.43084
▁komm	-7.43179
▁wollt	-7.44286
▁'	-7.44334
▁weiß	-7.45454
▁werd	-7.45454
▁zeig	-7.46536
▁weg	-7.47082
▁stell	-7.47982
▁besser	-7.50627
▁sondern	-7.51092
▁gleich	-7.51144
▁passiert	-7.51195
▁geb	-7.51299
▁wichtig	-7.53291
▁doch	-7.53344
▁!	-7.54195
▁unserer	-7.54838
▁dazu	-7.55161
▁während	-7.55865
▁sach	-7.56519
▁sogar	-7.56847
▁vom	-7.57122
▁kam	-7.57232
▁jemand	-7.57508
▁hätt	-7.60081
▁versuch	-7.60364
▁eigen	-7.60706
▁einmal	-7.6082
▁gemacht	-7.61392
▁spiel	-7.6145
▁land	-7.6168
▁million	-7.61968
▁unter	-7.62083
▁will	-7.62083
▁gerad	-7.62373
▁nichts	-7.62431
▁ging	-7.62605
▁ohn	-7.63188
▁versteh	-7.63422
▁den	-7.63892
▁nehm	-7.64009
▁dafür	-7.64068
▁kommt	-7.64364
▁richtig	-7.64897
▁meist	-7.65016
▁zwisch	-7.65076
▁alt	-7.65553
▁nächst	-7.65553
▁sprech	-7.65853
▁zurück	-7.68653
▁sieht	-7.6977
▁ort	-7.70334
▁technologi	-7.70397
▁ni	-7.73458
▁grund	-7.73847
▁etwa	-7.74631
▁prozent	-7.74631
▁daran	-7.74696
▁dacht	-7.75817
▁bekomm	-7.78301
▁dabei	-7.78915
▁eigentlich	-7.79326
▁ziemlich	-7.80919
▁musst	-7.81198
▁end	-7.81689
▁lieb	-7.82963
▁schnell	-7.83678
▁menschlich	-7.84542
▁möglich	-7.84542
▁verschieden	-7.84687
▁darauf	-7.88303
▁gehirn	-7.88378
▁w	-7.88905
▁bedeutet	-7.89436
▁jung	-7.90275
▁brauch	-7.90506
▁geld	-7.91431
▁person	-7.91742
▁sprach	-7.93468
▁zusamm	-7.93547
▁zeigt	-7.94902
▁wass	-7.95546
▁dat	-7.95789
▁bring	-7.96194
▁weis	-7.96194
▁mann	-7.96357
▁lern	-7.96602
▁haus	-7.97093
▁soll	-7.97339
▁begann	-7.97668
▁sah	-7.98747
▁best	-7.99081
▁ihm	-8.0009
▁dollar	-8.00259
▁beid	-8.00684
▁meng	-8.01538
▁nutz	-8.01538
▁gesehen	-8.01967
▁kurz	-8.0214
▁erzähl	-8.02313
▁vier	-8.02399
▁solch	-8.03094
▁fall	-8.03268
▁freund	-8.03617
▁möglichkeit	-8.04056
▁10	-8.04144
▁information	-8.04232
▁schul	-8.05117
▁funktioniert	-8.05206
▁wort	-8.05295
▁einzig	-8.0646
▁form	-8.0673
▁ind	-8.07002
▁beim	-8.07365
▁nein	-8.07365
▁red	-8.07365
▁nenn	-8.07456
▁ins	-8.07729
▁schau	-8.08003
▁stellt	-8.08186
▁später	-8.0837
▁...	-8.08738
▁recht	-8.09292
▁raum	-8.09478
▁entwickelt	-8.10036
▁monat	-8.11258
▁moment	-8.11352
▁sei	-8.11447
▁fast	-8.11731
▁antwort	-8.11826
▁versucht	-8.12112
▁punkt	-8.12303
▁gern	-8.12494
▁gesagt	-8.12494
▁projekt	-8.13455
▁unglaublich	-8.14037
▁bau	-8.15604
▁tat	-8.15703
▁gegen	-8.16099
▁braucht	-8.16297
▁interessant	-8.16297
▁weiter	-8.16596
▁halt	-8.16896
▁schaff	-8.16996
▁fand	-8.17296
▁kenn	-8.17497
▁bestimmt	-8.17598
▁schön	-8.178
▁heißt	-8.18002
▁zukunft	-8.18306
▁heraus	-8.19942
▁grupp	-8.20045
▁wahrscheinlich	-8.20355
▁anfang	-8.20458
▁woch	-8.20666
▁famili	-8.2077
▁oft	-8.21186
▁erd	-8.21815
▁fünf	-8.2192
▁20	-8.22765
▁milliard	-8.23724
▁helf	-8.24045
▁hör	-8.24045
▁lag	-8.24045
▁zweit	-8.2426
▁beginn	-8.24368
▁aug	-8.25017
▁ess	-8.26107
▁ungefähr	-8.26327
▁sozial	-8.26767
▁pro	-8.27099
▁größt	-8.27654
▁planet	-8.27654
▁genug	-8.29679
▁anders	-8.29793
▁zahl	-8.29906
▁gefühl	-8.30021
▁j	-8.30135
▁darum	-8.30478
▁schlecht	-8.30937
▁minut	-8.31283
▁steh	-8.31514
▁stund	-8.31746
▁manchmal	-8.32795
▁regierung	-8.32795
▁führt	-8.3303
▁mutt	-8.33265
▁stadt	-8.33265
▁gesellschaft	-8.33383
▁gehört	-8.33501
▁klar	-8.33619
▁bissch	-8.33738
▁syst	-8.33738
▁benutz	-8.33974
▁überall	-8.34331
▁unternehm	-8.34569
▁euch	-8.34808
▁okay	-8.35168
▁wusst	-8.35288
▁dein	-8.35529
▁fragt	-8.35891
▁liegt	-8.36012
▁usa	-8.36012
▁falsch	-8.36376
▁bitt	-8.36619
▁niemand	-8.3723
▁s	-8.3723
▁bevor	-8.37475
▁comput	-8.37844
▁deshalb	-8.37844
▁energi	-8.38215
▁fähigkeit	-8.38339
▁sinn	-8.3921
▁wert	-8.39837
▁körp	-8.41103
▁großartig	-8.4123
▁verändern	-8.41358
▁einzeln	-8.41614
▁licht	-8.41614
▁erfahrung	-8.42127
▁afrika	-8.42643
▁buch	-8.42902
▁film	-8.43032
▁design	-8.43292
▁tier	-8.43292
▁besonders	-8.43814
▁wahr	-8.44208
▁verändert	-8.44339
▁größ	-8.44999
▁krieg	-8.45531
▁gebäud	-8.45797
▁bereits	-8.45931
▁musik	-8.46065
▁erreich	-8.46602
▁30	-8.46871
▁arbeitet	-8.46871
▁unterschied	-8.46871
▁darin	-8.47141
▁eh	-8.47141
▁such	-8.47141
▁hin	-8.4782
▁natur	-8.4782
▁früh	-8.47957
▁erkenn	-8.4823
▁fühl	-8.48504
▁steht	-8.49054
▁dich	-8.49607
▁nam	-8.50164
▁gar	-8.50443
▁50	-8.50583
▁namens	-8.50863
▁männ	-8.51145
▁gott	-8.51286
▁wissenschaft	-8.52135
▁lösung	-8.52849
▁mädch	-8.52849
▁leid	-8.53568
▁new	-8.53713
▁innerhalb	-8.54002
▁patient	-8.54002
▁ok	-8.54147
▁lauf	-8.54292
▁stark	-8.54292
▁ziel	-8.54292
▁100	-8.54438
▁irgendwi	-8.54729
▁treff	-8.55756
▁lehr	-8.56052
▁echt	-8.562
▁internet	-8.56348
▁sechs	-8.56645
▁vorstell	-8.56645
▁hand	-8.56794
▁betracht	-8.56943
▁staat	-8.57392
▁gesamt	-8.57843
▁global	-8.57843
▁wegen	-8.57994
▁beweg	-8.58145
▁toll	-8.58145
▁indi	-8.58296
▁führ	-8.58599
▁nahm	-8.58599
▁stück	-8.58751
▁stimm	-8.58903
▁riesig	-8.59055
▁schreib	-8.59667
▁obwohl	-8.60128
▁ähnlich	-8.60128
▁verwend	-8.60282
▁manch	-8.60591
▁dah	-8.60901
▁lebens	-8.60901
▁zell	-8.61057
▁entwickeln	-8.62466
▁angst	-8.62624
▁schw	-8.62624
▁erhalten	-8.62782
▁oh	-8.62941
▁nämlich	-8.63258
▁damals	-8.64538
▁kopf	-8.64699
▁vat	-8.65022
▁ändern	-8.65347
▁bereich	-8.65998
▁erzählt	-8.66162
▁krankheit	-8.66325
▁veränderung	-8.66983
▁les	-8.6748
▁schwierig	-8.6748
▁verbindung	-8.6748
▁voll	-8.6748
▁hoch	-8.67645
▁gemeinsam	-8.67812
▁straß	-8.67812
▁verhalten	-8.67812
▁kindern	-8.68312
▁studi	-8.68312
▁kultur	-8.68815
▁prozess	-8.69152
▁modell	-8.6932
▁gedank	-8.6949
▁hint	-8.69659
▁überhaupt	-8.69659
▁getan	-8.70169
▁tausend	-8.70681
▁bewegung	-8.71024
▁eins	-8.71024
▁eltern	-8.71368
▁bekannt	-8.71714
▁direkt	-8.71714
▁reis	-8.71714
▁hört	-8.71887
▁zwar	-8.71887
▁auto	-8.72408
▁dir	-8.72408
▁entscheidung	-8.72408
▁york	-8.72583
▁universum	-8.72757
▁beziehung	-8.73812
▁tut	-8.73812
▁fing	-8.73989
▁allein	-8.74166
▁aufgab	-8.74166
▁der	-8.74166
▁wohl	-8.74878
▁entwicklung	-8.75235
▁nachricht	-8.75235
▁weltweit	-8.75235
▁herum	-8.75594
▁maschin	-8.75774
▁glück	-8.76135
▁länd	-8.76135
▁öffentlich	-8.76135
▁arm	-8.76498
▁tief	-8.76498
▁china	-8.76679
▁schritt	-8.76679
▁normal	-8.76861
▁jedoch	-8.77044
▁nachd	-8.77409
▁produkt	-8.77409
▁15	-8.77593
▁benutzt	-8.77593
▁völlig	-8.77593
▁herausforderung	-8.7796
▁jen	-8.7796
▁unterschiedlich	-8.78145
▁folg	-8.79258
▁kleiner	-8.79258
▁hundert	-8.79819
▁situation	-8.80007
▁los	-8.80195
▁schließlich	-8.80383
▁politisch	-8.80572
▁unt	-8.80572
▁acht	-8.80762
▁mag	-8.80762
▁genauso	-8.80951
▁mitt	-8.80951
▁stand	-8.81141
▁lebt	-8.81331
▁word	-8.81331
▁danach	-8.81522
▁gründ	-8.81522
▁publikum	-8.81522
▁erinnern	-8.81713
▁größer	-8.81713
▁hoff	-8.81713
▁städt	-8.81713
▁plötzlich	-8.81904
▁bekam	-8.82481
▁bringt	-8.82481
▁flieg	-8.82481
▁verstand	-8.82481
▁lässt	-8.83254
▁bleib	-8.83839
▁hilf	-8.83839
▁video	-8.83839
▁amerikanisch	-8.84034
▁kauf	-8.8423
▁richtung	-8.85017
▁robot	-8.85017
▁schwarz	-8.85017
▁kunst	-8.85414
▁fest	-8.86011
▁gerät	-8.86011
▁struktur	-8.86011
▁bracht	-8.8621
▁technik	-8.8621
▁folgend	-8.86411
▁fühlt	-8.86411
▁selb	-8.86411
▁gewiss	-8.87014
▁glücklich	-8.87215
▁lös	-8.87418
▁schaut	-8.8762
▁absolut	-8.87823
▁generation	-8.87823
▁dritt	-8.88231
▁roll	-8.88231
▁zuerst	-8.88231
▁hoh	-8.88435
▁wunderbar	-8.88435
▁frei	-8.8864
▁jahrhundert	-8.8864
▁kart	-8.8864
▁dess	-8.88845
▁gewinn	-8.88845
▁student	-8.88845
▁gebiet	-8.8905
▁objekt	-8.8905
▁vorstellung	-8.89256
▁besteht	-8.8967
▁verwendet	-8.8967
▁rot	-8.89877
▁ted	-8.90084
▁thema	-8.90501
▁2	-8.9071
▁fahr	-8.9071
▁sterb	-8.9071
▁experiment	-8.90919
▁h	-8.90919
▁gemeinschaft	-8.91129
▁falls	-8.9155
▁schrieb	-8.92611
▁sieb	-8.92611
▁komplett	-8.92824
▁krebs	-8.92824
▁bereit	-8.93038
▁hast	-8.93038
▁zuvor	-8.93038
▁erklär	-8.93253
▁entdeckt	-8.93467
▁bewusst	-8.93683
▁langsam	-8.93683
▁erreicht	-8.93898
▁sekund	-8.94549
▁erstaunlich	-8.94766
▁40	-8.94984
▁genannt	-8.94984
▁ländern	-8.94984
▁entfernt	-8.95641
▁gefunden	-8.95641
▁leicht	-8.95641
▁daraus	-8.95861
▁tatsach	-8.96082
▁typ	-8.96524
▁wirtschaft	-8.96524
▁gelernt	-8.96746
▁gesetz	-8.96746
▁nah	-8.96746
▁auß	-8.97192
▁grenz	-8.97192
▁offen	-8.97192
▁erschaff	-8.97415
▁herz	-8.97415
▁lernt	-8.97415
▁reih	-8.97415
▁komplex	-8.97864
▁umgebung	-8.97864
▁drauß	-8.98314
▁nachdenk	-8.98314
▁stimmt	-8.9854
▁farb	-8.98767
▁kost	-8.98767
▁wichtigst	-8.98767
▁ausseh	-8.99449
▁autos	-8.99449
▁scheint	-8.99449
▁wahrheit	-8.99449
▁spielt	-8.99678
▁funktionieren	-8.99907
▁offensichtlich	-8.99907
▁egal	-9.00367
▁gesicht	-9.00367
▁anstatt	-9.00829
▁erfolg	-9.00829
▁sitz	-9.00829
▁verlor	-9.00829
▁passier	-9.0106
▁interessiert	-9.01293
▁gebaut	-9.01525
▁persönlich	-9.01525
▁nimmt	-9.01759
▁bod	-9.01993
▁wissenschaftl	-9.01993
▁blau	-9.02698
▁werkzeug	-9.02698
▁meinung	-9.02934
▁wissenschaftlich	-9.02934
▁fisch	-9.03171
▁gewes	-9.03171
▁zieh	-9.03171
▁beginnt	-9.03408
▁luft	-9.03646
▁miteinand	-9.03646
▁jemals	-9.04123
▁bedeutung	-9.04843
▁verrückt	-9.04843
▁anzahl	-9.05326
▁trag	-9.05326
▁geword	-9.05569
▁händ	-9.05569
▁setz	-9.05569
▁bewegt	-9.063
▁grün	-9.063
▁lini	-9.063
▁organisation	-9.063
▁verbund	-9.063
▁zehn	-9.063
▁gezeigt	-9.06544
▁niemals	-9.06544
▁bekommt	-9.0679
▁politik	-9.07036
▁sorg	-9.07282
▁mög	-9.08026
▁bist	-9.08275
▁tod	-9.08275
▁länger	-9.08525
▁method	-9.08525
▁findet	-9.08775
▁platz	-9.09278
▁preis	-9.09278
▁netzwerk	-9.0953
▁fehl	-9.09783
▁englisch	-9.1029
▁must	-9.1029
▁oberfläch	-9.1029
▁ozean	-9.10545
▁reich	-9.10545
▁gen	-9.108
▁morg	-9.11057
▁beweis	-9.11313
▁innovation	-9.11571
▁bildung	-9.11829
▁perfekt	-9.11829
▁hälft	-9.12087
▁pflanz	-9.12087
▁vergleich	-9.12607
▁gesundheit	-9.12868
▁amerika	-9.13129
▁konzept	-9.13391
▁programm	-9.13391
▁ca	-9.13654
▁international	-9.13654
▁höher	-9.14447
▁labor	-9.14447
▁sofort	-9.14447
▁statt	-9.14447
▁traf	-9.14447
▁1	-9.14712
▁blick	-9.14712
▁rest	-9.14712
▁forschung	-9.14979
▁heutzutag	-9.14979
▁nacht	-9.15513
▁kraft	-9.15782
▁beobacht	-9.16051
▁gegenüb	-9.17135
▁eben	-9.17408
▁vereinigt	-9.17408
▁wahl	-9.17408
▁ließ	-9.17681
▁modern	-9.17681
▁wann	-9.17681
▁setzt	-9.18231
▁genomm	-9.18507
▁ständig	-9.18507
▁theori	-9.18507
▁foto	-9.18783
▁realität	-9.18783
▁anseh	-9.19339
▁extrem	-9.19339
▁gleichzeitig	-9.19339
▁sicherheit	-9.19339
▁wichtiger	-9.19339
▁glaubt	-9.19618
▁erlaubt	-9.19898
▁trotzd	-9.19898
▁geboren	-9.20178
▁sonst	-9.20178
▁geschieht	-9.20459
▁medikament	-9.20459
▁sonn	-9.20459
▁lieg	-9.20741
▁links	-9.20741
▁gegeben	-9.21024
▁hart	-9.21024
▁nennt	-9.21024
▁wesentlich	-9.21308
▁markt	-9.21593
▁geschrieben	-9.21878
▁gewalt	-9.21878
▁normalerweis	-9.21878
▁3	-9.22164
▁hoffnung	-9.22451
▁chanc	-9.22739
▁europa	-9.22739
▁revolution	-9.22739
▁älter	-9.22739
▁digital	-9.23027
▁firma	-9.23317
▁halb	-9.23317
▁irgendein	-9.23317
▁fantastisch	-9.23607
▁mathematik	-9.23607
▁vergessen	-9.23607
▁wirtschaftlich	-9.23607
▁fäll	-9.23898
▁interess	-9.23898
▁universität	-9.23898
▁mehrer	-9.2419
▁verlier	-9.2419
▁erfolgreich	-9.24483
▁national	-9.24483
▁regeln	-9.24483
▁tot	-9.24777
▁bein	-9.25071
▁ergebnis	-9.25071
▁gesprochen	-9.25071
▁außerd	-9.25367
▁dadurch	-9.25367
▁anschau	-9.25663
▁auswirkung	-9.25663
▁herauszufind	-9.25663
▁rund	-9.25663
▁team	-9.25663
▁wachs	-9.25663
▁system	-9.2596
▁übrigens	-9.2596
▁000	-9.26258
▁baut	-9.26258
▁positiv	-9.26258
▁vortrag	-9.26258
▁unmöglich	-9.26857
▁großer	-9.27158
▁enorm	-9.27762
▁fang	-9.27762
▁kontroll	-9.27762
▁sobald	-9.27762
▁speziell	-9.27762
▁verbracht	-9.27762
▁grundlegend	-9.28065
▁verlassen	-9.28065
▁vorh	-9.28065
▁demokrati	-9.2837
▁wart	-9.2837
▁bald	-9.28675
▁büch	-9.28981
▁gearbeitet	-9.28981
▁lokal	-9.28981
▁25	-9.29289
▁zumindest	-9.29289
▁5	-9.29597
▁mitgefühl	-9.29597
▁diejenig	-9.29906
▁met	-9.29906
▁heutig	-9.30216
▁60	-9.30527
▁betrachtet	-9.30527
▁80	-9.30839
▁aufmerksamkeit	-9.30839
▁googl	-9.30839
▁material	-9.31152
▁bevölkerung	-9.31466
▁ermöglicht	-9.31466
▁müsst	-9.31781
▁ergebniss	-9.32414
▁region	-9.32414
▁besonder	-9.32732
▁handelt	-9.32732
▁meer	-9.32732
▁denkt	-9.33051
▁kannst	-9.33051
▁stern	-9.33051
▁stärk	-9.33051
▁sucht	-9.33692
▁dieselb	-9.34014
▁gesund	-9.34014
▁kolleg	-9.34014
▁mess	-9.34337
▁umwelt	-9.34337
▁überleb	-9.34337
▁eigenschaft	-9.34986
▁test	-9.34986
▁arme	-9.35313
▁job	-9.35313
▁link	-9.35313
▁flugzeug	-9.3564
▁einfluss	-9.35968
▁cool	-9.36298
▁gescheh	-9.36298
▁besitz	-9.36629
▁schafft	-9.36629
▁bleibt	-9.3696
▁laut	-9.3696
▁spezi	-9.3696
▁aufgrund	-9.37293
▁jahrzehnt	-9.37293
▁geschäft	-9.37627
▁200	-9.37962
▁eur	-9.37962
▁herstell	-9.37962
▁spaß	-9.37962
▁allgemein	-9.38298
▁befind	-9.38298
▁hielt	-9.38298
▁reaktion	-9.38635
▁verkauf	-9.38635
▁bemerkt	-9.38974
▁medi	-9.38974
▁verbessern	-9.38974
▁chris	-9.39313
▁entdeck	-9.39313
▁geist	-9.39313
▁zusammenarbeit	-9.39313
▁aussieht	-9.39654
▁gemeind	-9.39654
▁gross	-9.39654
▁sohn	-9.39996
▁erzeug	-9.40339
▁zeug	-9.40339
▁entscheid	-9.40683
▁erkannt	-9.40683
▁evolution	-9.40683
▁neb	-9.40683
▁seltsam	-9.40683
▁medizinisch	-9.41028
▁fortschritt	-9.41375
▁heiß	-9.41375
▁kaum	-9.41375
▁medizin	-9.41375
▁ressourc	-9.41375
▁ändert	-9.41375
▁na	-9.41723
▁produzier	-9.41723
▁vergangenheit	-9.41723
▁12	-9.42072
▁wieso	-9.42072
▁wirklichkeit	-9.42072
▁eis	-9.42422
▁erklärt	-9.42422
▁vertrau	-9.42422
▁dorf	-9.42774
▁nation	-9.42774
▁bäum	-9.43126
▁sowohl	-9.43126
▁verkauft	-9.43126
▁ärzt	-9.43126
▁aktiv	-9.4348
▁ernst	-9.4348
▁inner	-9.4348
▁menschheit	-9.4348
▁nachzudenk	-9.4348
▁papier	-9.4348
▁gebracht	-9.43836
▁gefahr	-9.43836
▁untersuch	-9.43836
▁berg	-9.44192
▁rechts	-9.44192
▁kreativ	-9.4455
▁zugang	-9.4455
▁erinnerung	-9.44909
▁kämpf	-9.44909
▁molekül	-9.44909
▁irgendwo	-9.45269
▁ehrlich	-9.45631
▁fertig	-9.45631
▁dasselb	-9.45994
▁ebenso	-9.45994
▁klass	-9.45994
▁ti	-9.45994
▁verbind	-9.45994
▁entwed	-9.46358
▁lach	-9.46358
▁th	-9.46358
▁sammeln	-9.46724
▁wähl	-9.46724
▁biologisch	-9.47091
▁dreht	-9.47091
▁eb	-9.47091
▁künstl	-9.47091
▁aktivität	-9.47459
▁behandlung	-9.47459
▁hund	-9.47459
▁hinaus	-9.47829
▁näher	-9.47829
▁physik	-9.47829
▁sodass	-9.47829
▁uhr	-9.47829
▁benötigt	-9.482
▁existiert	-9.482
▁gekomm	-9.482
▁west	-9.482
▁beschloss	-9.48572
▁plan	-9.48572
▁schül	-9.48572
▁gestellt	-9.48946
▁schrecklich	-9.48946
▁amerikan	-9.49322
▁entschieden	-9.49322
▁sicht	-9.49322
▁winzig	-9.49322
▁druck	-9.49698
▁gefragt	-9.49698
▁handeln	-9.49698
▁hilft	-9.49698
▁moralisch	-9.49698
▁prinzip	-9.49698
▁erwart	-9.50076
▁traditionell	-9.50076
▁täglich	-9.50076
▁veröffentlicht	-9.50076
▁spitz	-9.50456
▁90	-9.50837
▁außerhalb	-9.50837
▁chinesisch	-9.50837
▁dauert	-9.50837
▁erinnert	-9.50837
▁galaxi	-9.50837
▁leist	-9.50837
▁of	-9.50837
▁real	-9.50837
▁rett	-9.50837
▁saß	-9.50837
▁schütz	-9.50837
▁armut	-9.51219
▁dna	-9.51219
▁herr	-9.51219
▁zufällig	-9.51603
▁entstand	-9.51988
▁läuft	-9.51988
▁ordnung	-9.51988
▁4	-9.52375
▁bakteri	-9.52375
▁bewusstsein	-9.52375
▁einand	-9.52375
▁fotos	-9.52375
▁praktisch	-9.52375
▁tür	-9.52375
▁gefährlich	-9.52764
▁herausfind	-9.52764
▁öl	-9.52764
▁erstens	-9.53153
▁schick	-9.53153
▁freiheit	-9.53938
▁leg	-9.53938
▁netz	-9.53938
▁starb	-9.53938
▁befindet	-9.54332
▁neun	-9.54332
▁nutzt	-9.54332
▁vorteil	-9.54332
▁firm	-9.54728
▁element	-9.55126
▁genetisch	-9.55126
▁himmel	-9.55126
▁fernseh	-9.55525
▁wunderschön	-9.55525
▁aspekt	-9.55926
▁botschaft	-9.55926
▁bühn	-9.55926
▁gelegenheit	-9.55926
▁unterstütz	-9.55926
▁verbreitet	-9.55926
▁zunächst	-9.55926
▁grad	-9.56328
▁wachstum	-9.56328
▁desweg	-9.56732
▁erfahr	-9.56732
▁freud	-9.56732
▁list	-9.56732
▁18	-9.57138
▁erleb	-9.57138
▁erzeugt	-9.57138
▁raus	-9.57138
▁getroffen	-9.57545
▁verbring	-9.57545
▁verursacht	-9.57545
▁ca.	-9.57954
▁hält	-9.57954
▁konflikt	-9.57954
▁zeitpunkt	-9.57954
▁architektur	-9.58365
▁geschaff	-9.58365
▁beschäftigt	-9.58777
▁bezug	-9.58777
▁ebenfalls	-9.58777
▁nahrung	-9.58777
▁numm	-9.58777
▁rein	-9.58777
▁öffn	-9.58777
▁arzt	-9.59192
▁bish	-9.59607
▁erinner	-9.59607
▁fällt	-9.59607
▁nannt	-9.59607
▁zustand	-9.59607
▁produziert	-9.60025
▁softwar	-9.60025
▁artikel	-9.60444
▁dicht	-9.60444
▁geschah	-9.60444
▁besuch	-9.60865
▁waff	-9.60865
▁wand	-9.60865
▁wundervoll	-9.60865
▁desto	-9.61288
▁dunkl	-9.61288
▁entdeckung	-9.61288
▁mittel	-9.61288
▁durchschnittlich	-9.61713
▁technisch	-9.61713
▁visuell	-9.61713
▁kompliziert	-9.62139
▁version	-9.62139
▁gestalt	-9.62567
▁präsident	-9.62567
▁spricht	-9.62567
▁stattdess	-9.62567
▁zweitens	-9.62567
▁erfunden	-9.62997
▁erwartet	-9.62997
▁leidenschaft	-9.62997
▁naja	-9.62997
▁quell	-9.62997
▁konzentrier	-9.63429
▁kostet	-9.63429
▁tisch	-9.63429
▁trotz	-9.63429
▁jahrhunderts	-9.63863
▁km	-9.63863
▁religion	-9.63863
▁träum	-9.63863
▁verständnis	-9.63863
▁zusätzlich	-9.63863
▁elektrisch	-9.64299
▁endlich	-9.64299
▁gedacht	-9.64737
▁wes	-9.65176
▁häufig	-9.65618
▁unabhängig	-9.65618
▁bericht	-9.66061
▁bloß	-9.66061
▁schlag	-9.66061
▁schönheit	-9.66061
▁signal	-9.66061
▁stolz	-9.66061
▁ahnung	-9.66507
▁aufnahm	-9.66507
▁außergewöhnlich	-9.66507
▁gehirns	-9.66507
▁haut	-9.66507
▁steckt	-9.66507
▁ursprünglich	-9.66507
▁beeinflusst	-9.66954
▁behandeln	-9.66954
▁angefang	-9.67403
▁leistung	-9.67403
▁schmerz	-9.67403
▁strom	-9.67403
▁z.b.	-9.67403
▁geräusch	-9.67855
▁hiv	-9.67855
▁höchst	-9.67855
▁wört	-9.67855
▁ameis	-9.68308
▁entscheidend	-9.68308
▁folgt	-9.68308
▁physisch	-9.68308
▁las	-9.68764
▁näh	-9.68764
▁gespräch	-9.69222
▁hinein	-9.69222
▁inhalt	-9.69222
▁lief	-9.69222
▁faszinierend	-9.69681
▁genutzt	-9.69681
▁institution	-9.69681
▁neuron	-9.69681
▁trifft	-9.69681
▁aufgenommen	-9.70143
▁kontrollier	-9.70143
▁krankenhaus	-9.70143
▁materiali	-9.70143
▁bedingung	-9.70607
▁begriff	-9.70607
▁kampf	-9.70607
▁london	-9.70607
▁ruf	-9.70607
▁behandelt	-9.71074
▁kulturell	-9.71074
▁legt	-9.71074
▁meint	-9.71074
▁ost	-9.71074
▁position	-9.71074
▁vollständig	-9.71074
▁beobachtet	-9.71542
▁erfind	-9.71542
▁soldat	-9.71542
▁verfügung	-9.71542
▁wohin	-9.71542
▁a	-9.72013
▁aufbau	-9.72013
▁begonn	-9.72013
▁erlaub	-9.72013
▁gegangen	-9.72013
▁gelang	-9.72013
▁lautet	-9.72013
▁onlin	-9.72013
▁sicherlich	-9.72013
▁unterricht	-9.72013
▁afrikanisch	-9.72485
▁funktion	-9.72485
▁kamera	-9.72485
▁mass	-9.72485
▁nett	-9.72485
▁total	-9.72485
▁500	-9.7296
▁allerdings	-9.7296
▁bien	-9.7296
▁höh	-9.7296
▁kreis	-9.7296
▁verantwortung	-9.7296
▁vorbei	-9.7296
▁berühmt	-9.73438
▁dennoch	-9.73438
▁dreh	-9.73438
▁eck	-9.73438
▁erforsch	-9.73438
▁männern	-9.73438
▁tim	-9.73438
▁zog	-9.73438
▁überzeugt	-9.73438
▁bemerkenswert	-9.73917
▁emotional	-9.73917
▁fluss	-9.73917
▁fremd	-9.73917
▁gehör	-9.73917
▁habt	-9.73917
▁herzustell	-9.73917
▁kund	-9.73917
▁letztendlich	-9.73917
▁runt	-9.73917
▁schließ	-9.73917
▁westlich	-9.73917
▁gegend	-9.74399
▁geschafft	-9.74399
▁instrument	-9.74399
▁kalt	-9.74399
▁wind	-9.74399
▁abend	-9.74884
▁büro	-9.74884
▁dr.	-9.74884
▁lebend	-9.74884
▁start	-9.74884
▁70	-9.7537
▁deutlich	-9.7537
▁gilt	-9.7537
▁infrastruktur	-9.7537
▁irgendwann	-9.7537
▁lustig	-9.7537
▁somit	-9.7537
▁werf	-9.7537
▁hey	-9.75859
▁aufregend	-9.76351
▁biologi	-9.76351
▁insekt	-9.76351
▁niedrig	-9.76351
▁weiterhin	-9.76351
▁wund	-9.76351
▁ansicht	-9.76844
▁erlebt	-9.76844
▁john	-9.76844
▁kontakt	-9.76844
▁untersucht	-9.76844
▁verdien	-9.76844
▁geschwindigkeit	-9.77341
▁investier	-9.77341
▁klingt	-9.77341
▁nachhaltig	-9.77341
▁schien	-9.77341
▁steck	-9.77341
▁aktuell	-9.77839
▁erstell	-9.77839
▁erwähnt	-9.77839
▁reagier	-9.77839
▁dorthin	-9.78341
▁intelligent	-9.78341
▁kreativität	-9.78341
▁phänomen	-9.78341
▁töt	-9.78341
▁überrascht	-9.78341
▁ansatz	-9.78844
▁besucht	-9.78844
▁dageg	-9.78844
▁david	-9.78844
▁sogenannt	-9.78844
▁anwendung	-9.79351
▁ermöglich	-9.79351
▁tu	-9.79351
▁entschied	-9.7986
▁entsteht	-9.7986
▁fuhr	-9.7986
▁komplexität	-9.7986
▁lied	-9.7986
▁sex	-9.7986
▁6	-9.80371
▁spät	-9.80371
▁traum	-9.80371
▁vielfalt	-9.80371
▁wiederum	-9.80371
▁zuhaus	-9.80371
▁beeinfluss	-9.80885
▁dam	-9.80885
▁entlang	-9.80885
▁entsteh	-9.80885
▁forsch	-9.80885
▁still	-9.80885
▁davor	-9.81402
▁einzigartig	-9.81402
▁interessier	-9.81402
▁nötig	-9.81402
▁telefon	-9.81402
▁tocht	-9.81402
▁weiss	-9.81402
▁beschreib	-9.81922
▁blieb	-9.81922
▁drüb	-9.81922
▁fuß	-9.81922
▁hoffentlich	-9.81922
▁leer	-9.81922
▁vermutlich	-9.81922
▁baby	-9.82444
▁benötig	-9.82444
▁lasst	-9.82444
▁meistens	-9.82444
▁mittler	-9.82444
▁nützlich	-9.82444
▁rat	-9.82444
▁strategi	-9.82444
▁b	-9.82969
▁bezahl	-9.82969
▁operation	-9.82969
▁statistik	-9.82969
▁besteh	-9.83496
▁fenst	-9.83496
▁unsichtbar	-9.83496
▁verfügbar	-9.83496
▁vorn	-9.83496
▁16	-9.84027
▁aff	-9.84027
▁atmosphär	-9.84027
▁entwerf	-9.84027
▁feld	-9.84027
▁kauft	-9.84027
▁mark	-9.84027
▁mars	-9.84027
▁bös	-9.8456
▁hinweis	-9.8456
▁hol	-9.8456
▁passt	-9.8456
▁zusammenhang	-9.8456
▁übertragen	-9.8456
▁japan	-9.85097
▁negativ	-9.85097
▁resultat	-9.85097
▁unterstützung	-9.85097
▁verfolg	-9.85097
▁300	-9.85636
▁ausdruck	-9.85636
▁darf	-9.85636
▁durchgeführt	-9.85636
▁gelb	-9.85636
▁großbritanni	-9.85636
▁herausgefunden	-9.85636
▁kilomet	-9.85636
▁kommunizier	-9.85636
▁wald	-9.85636
▁bezahlt	-9.86178
▁meil	-9.86178
▁typisch	-9.86178
▁verantwortlich	-9.86178
▁afghanistan	-9.86723
▁betrifft	-9.86723
▁expert	-9.86723
▁krank	-9.86723
▁künstlich	-9.86723
▁landschaft	-9.86723
▁notwendig	-9.86723
▁opf	-9.86723
▁regel	-9.86723
▁satz	-9.86723
▁universums	-9.86723
▁zentrum	-9.86723
▁14	-9.87271
▁arabisch	-9.87271
▁blind	-9.87271
▁karrier	-9.87271
▁konferenz	-9.87271
▁materi	-9.87271
▁protein	-9.87271
▁qualität	-9.87271
▁risiko	-9.87271
▁somm	-9.87271
▁vision	-9.87271
▁stein	-9.87821
▁unbedingt	-9.87821
▁2000	-9.88375
▁begeistert	-9.88375
▁buchstäblich	-9.88375
▁effekt	-9.88375
▁fried	-9.88375
▁gehalt	-9.88375
▁hauptsächlich	-9.88375
▁loch	-9.88375
▁neuer	-9.88375
▁vollkommen	-9.88375
▁werk	-9.88375
▁wirst	-9.88375
▁ausbildung	-9.88933
▁erhielt	-9.88933
▁gewöhnlich	-9.88933
▁sitzt	-9.88933
▁sowi	-9.88933
▁sozusag	-9.88933
▁umgeh	-9.88933
▁basiert	-9.89493
▁bat	-9.89493
▁gewonn	-9.89493
▁identität	-9.89493
▁jobs	-9.89493
▁kommunikation	-9.89493
▁nochmal	-9.89493
▁tanz	-9.89493
▁versteckt	-9.89493
▁architekt	-9.90056
▁behaupt	-9.90056
▁bürg	-9.90056
▁fakt	-9.90056
▁gefängnis	-9.90056
▁kontext	-9.90056
▁liebt	-9.90056
▁perspektiv	-9.90056
▁schein	-9.90056
▁chemisch	-9.90623
▁geführt	-9.90623
▁intelligenz	-9.90623
▁kannt	-9.90623
▁mächtig	-9.90623
▁möglicherweis	-9.90623
▁8	-9.91193
▁gewaltig	-9.91193
▁leit	-9.91193
▁stuf	-9.91193
▁wed	-9.91193
▁bildschirm	-9.91766
▁eng	-9.91766
▁faktor	-9.91766
▁gang	-9.91766
▁genauer	-9.91766
▁wandel	-9.91766
▁zukünftig	-9.91766
▁alternativ	-9.92342
▁konzentriert	-9.92342
▁reicht	-9.92342
▁wahrscheinlichkeit	-9.92342
▁bank	-9.92922
▁erstellt	-9.92922
▁privat	-9.92922
▁schlimmer	-9.92922
▁woh	-9.92922
▁wuchs	-9.92922
▁zerstört	-9.92922
▁hängt	-9.93505
▁ingenieur	-9.93505
▁lad	-9.93505
▁schimpans	-9.93505
▁schätz	-9.93505
▁übrig	-9.93505
▁bildern	-9.94091
▁charakter	-9.94091
▁einheit	-9.94091
▁inspiriert	-9.94091
▁kümmern	-9.94091
▁kürzlich	-9.94091
▁wieviel	-9.94091
▁wunsch	-9.94091
▁breit	-9.94681
▁diskussion	-9.94681
▁erfindung	-9.94681
▁erklärung	-9.94681
▁feu	-9.94681
▁fiel	-9.94681
▁genom	-9.94681
▁individuell	-9.94681
▁relativ	-9.94681
▁schlaf	-9.94681
▁virtuell	-9.94681
▁daß	-9.95275
▁dürf	-9.95275
▁einsetz	-9.95275
▁jungs	-9.95275
▁virus	-9.95275
▁worüb	-9.95275
▁zentral	-9.95275
▁20.	-9.95872
▁b.	-9.95872
▁blut	-9.95872
▁gegenteil	-9.95872
▁gestern	-9.95872
▁gewicht	-9.95872
▁großteil	-9.95872
▁klimawandel	-9.95872
▁religiös	-9.95872
▁san	-9.95872
▁zeitung	-9.95872
▁anruf	-9.96472
▁babys	-9.96472
▁dahin	-9.96472
▁gegenseitig	-9.96472
▁interagier	-9.96472
▁schickt	-9.96472
▁zweck	-9.96472
▁getötet	-9.97077
▁kräft	-9.97077
▁räum	-9.97077
▁seid	-9.97077
▁stammt	-9.97077
▁drittel	-9.97684
▁mond	-9.97684
▁verbessert	-9.97684
▁wächst	-9.97684
▁änderung	-9.97684
▁11	-9.98296
▁bestimm	-9.98296
▁effektiv	-9.98296
▁einsatz	-9.98296
▁erwachsen	-9.98296
▁gebet	-9.98296
▁irgendetwas	-9.98296
▁organisiert	-9.98296
▁temperatur	-9.98296
▁verhindern	-9.98296
▁annahm	-9.98911
▁anstell	-9.98911
▁city	-9.98911
▁einkomm	-9.98911
▁kostenlos	-9.98911
▁mindestens	-9.98911
▁pass	-9.98911
▁vorhanden	-9.98911
▁überzeug	-9.98911
▁gehabt	-9.99531
▁indisch	-9.99531
▁polizei	-9.99531
▁text	-9.99531
▁untersuchung	-9.99531
▁vorhersag	-9.99531
▁zuhör	-9.99531
▁beschäftig	-10.0015
▁biet	-10.0015
▁freiwillig	-10.0015
▁hintergrund	-10.0015
▁kontinent	-10.0015
▁send	-10.0015
▁verwandeln	-10.0015
▁z.	-10.0015
▁zivilisation	-10.0015
▁überraschend	-10.0015
▁antwortet	-10.0078
▁eingesetzt	-10.0078
▁kris	-10.0078
▁kurs	-10.0078
▁lebendig	-10.0078
▁museum	-10.0078
▁professor	-10.0078
▁steuern	-10.0078
▁unterscheid	-10.0078
▁cent	-10.0141
▁geweb	-10.0141
▁hinweg	-10.0141
▁morgens	-10.0141
▁partn	-10.0141
▁rief	-10.0141
▁schwierigkeit	-10.0141
▁studier	-10.0141
▁them	-10.0141
▁verschwind	-10.0141
▁verteilt	-10.0141
▁videos	-10.0141
▁zeich	-10.0141
▁boot	-10.0205
▁existier	-10.0205
▁null	-10.0205
▁sichtbar	-10.0205
▁wartet	-10.0205
▁anwend	-10.0269
▁depression	-10.0269
▁fläch	-10.0269
▁hai	-10.0269
▁hauf	-10.0269
▁hergestellt	-10.0269
▁irak	-10.0269
▁kennt	-10.0269
▁nord	-10.0269
▁ohr	-10.0269
▁wett	-10.0269
▁zähl	-10.0269
▁24	-10.0333
▁augenblick	-10.0333
▁brot	-10.0333
▁grundsätzlich	-10.0333
▁held	-10.0333
▁interaktion	-10.0333
▁m	-10.0333
▁schlimmst	-10.0333
▁stamm	-10.0333
▁studiert	-10.0333
▁vertraut	-10.0333
▁öffentlichkeit	-10.0333
▁absicht	-10.0398
▁anfing	-10.0398
▁finanziell	-10.0398
▁maß	-10.0398
▁schiff	-10.0398
▁seitd	-10.0398
▁umständ	-10.0398
▁weiblich	-10.0398
▁abhängig	-10.0463
▁beantwort	-10.0463
▁emotion	-10.0463
▁erhöht	-10.0463
▁fort	-10.0463
▁handy	-10.0463
▁hass	-10.0463
▁kerl	-10.0463
▁sauerstoff	-10.0463
▁schwer	-10.0463
▁washington	-10.0463
▁aufhör	-10.0528
▁cod	-10.0528
▁grundlag	-10.0528
▁organ	-10.0528
▁schluss	-10.0528
▁sexuell	-10.0528
▁wow	-10.0528
▁öffnet	-10.0528
▁brück	-10.0594
▁ernsthaft	-10.0594
▁iran	-10.0594
▁park	-10.0594
▁teilnehm	-10.0594
▁wünsch	-10.0594
▁zeichn	-10.0594
▁ausmaß	-10.0661
▁gäb	-10.0661
▁industri	-10.0661
▁lektion	-10.0661
▁zitat	-10.0661
▁baum	-10.0728
▁märkt	-10.0728
▁mütt	-10.0728
▁schlimm	-10.0728
▁steig	-10.0728
▁titel	-10.0728
▁tradition	-10.0728
▁verwandelt	-10.0728
▁wahrnehmung	-10.0728
▁websit	-10.0728
▁behalt	-10.0795
▁doppelt	-10.0795
▁erhält	-10.0795
▁geburt	-10.0795
▁richt	-10.0795
▁schlüssel	-10.0795
▁soviel	-10.0795
▁unterstützt	-10.0795
▁wein	-10.0795
▁wertvoll	-10.0795
▁bestand	-10.0863
▁deck	-10.0863
▁einstellung	-10.0863
▁fahrzeug	-10.0863
▁inn	-10.0863
▁kaliforni	-10.0863
▁mathematisch	-10.0863
▁schuld	-10.0863
▁se	-10.0863
▁septemb	-10.0863
▁verbreit	-10.0863
▁verlust	-10.0863
▁basis	-10.0931
▁dimension	-10.0931
▁erkenntnis	-10.0931
▁foli	-10.0931
▁haar	-10.0931
▁schwest	-10.0931
▁symbol	-10.0931
▁trägt	-10.0931
▁bedeut	-10.1
▁gegensatz	-10.1
▁industriell	-10.1
▁klang	-10.1
▁programmier	-10.1
▁rand	-10.1
▁schicht	-10.1
▁13	-10.1069
▁bedürfniss	-10.1069
▁besagt	-10.1069
▁bett	-10.1069
▁brud	-10.1069
▁co2	-10.1069
▁definier	-10.1069
▁facebook	-10.1069
▁kontrolliert	-10.1069
▁well	-10.1069
▁eindruck	-10.1139
▁entspricht	-10.1139
▁wisst	-10.1139
▁wobei	-10.1139
▁10.000	-10.1209
▁automatisch	-10.1209
▁beinhaltet	-10.1209
▁britisch	-10.1209
▁erschein	-10.1209
▁gelesen	-10.1209
▁kern	-10.1209
▁koch	-10.1209
▁richard	-10.1209
▁spar	-10.1209
▁diagramm	-10.128
▁einrichtung	-10.128
▁england	-10.128
▁hinsicht	-10.128
▁kindheit	-10.128
▁klassisch	-10.128
▁landwirtschaft	-10.128
▁lebewes	-10.128
▁not	-10.128
▁organism	-10.128
▁tumor	-10.128
▁zerstör	-10.128
▁beruf	-10.1351
▁dutzend	-10.1351
▁entworf	-10.1351
▁europäisch	-10.1351
▁fabrik	-10.1351
▁investition	-10.1351
▁männlich	-10.1351
▁rahm	-10.1351
▁selt	-10.1351
▁volk	-10.1351
▁weißt	-10.1351
▁zunehmend	-10.1351
▁angenomm	-10.1422
▁berührt	-10.1422
▁füß	-10.1422
▁geändert	-10.1422
▁körpers	-10.1422
▁mitglied	-10.1422
▁motor	-10.1422
▁stev	-10.1422
▁teur	-10.1422
▁tret	-10.1422
▁viert	-10.1422
▁wolk	-10.1422
▁zeitalt	-10.1422
▁21.	-10.1495
▁aussag	-10.1495
▁definition	-10.1495
▁individu	-10.1495
▁komisch	-10.1495
▁landet	-10.1495
▁ober	-10.1495
▁unbekannt	-10.1495
▁vorfahr	-10.1495
▁zugänglich	-10.1495
▁amp	-10.1567
▁beitrag	-10.1567
▁ersetz	-10.1567
▁gestorben	-10.1567
▁half	-10.1567
▁mission	-10.1567
▁phas	-10.1567
▁rück	-10.1567
▁schad	-10.1567
▁schlechter	-10.1567
▁ungewöhnlich	-10.1567
▁verbrauch	-10.1567
▁vergangen	-10.1567
▁webseit	-10.1567
▁dar	-10.1641
▁dick	-10.1641
▁drog	-10.1641
▁fängt	-10.1641
▁hallo	-10.1641
▁historisch	-10.1641
▁per	-10.1641
▁reduzier	-10.1641
▁150	-10.1714
▁and	-10.1714
▁begrenzt	-10.1714
▁derselb	-10.1714
▁dran	-10.1714
▁drück	-10.1714
▁fehlt	-10.1714
▁geschickt	-10.1714
▁grafik	-10.1714
▁kombination	-10.1714
▁mund	-10.1714
▁prob	-10.1714
▁schutz	-10.1714
▁verwandt	-10.1714
▁400	-10.1789
▁beispielsweis	-10.1789
▁bildet	-10.1789
▁billig	-10.1789
▁details	-10.1789
▁eindeutig	-10.1789
▁figur	-10.1789
▁gefällt	-10.1789
▁klug	-10.1789
▁knoch	-10.1789
▁teilt	-10.1789
▁verbindet	-10.1789
▁werbung	-10.1789
▁aids	-10.1864
▁angeseh	-10.1864
▁annehm	-10.1864
▁fähig	-10.1864
▁fördern	-10.1864
▁gedicht	-10.1864
▁kritisch	-10.1864
▁35	-10.1939
▁beinah	-10.1939
▁brief	-10.1939
▁derzeit	-10.1939
▁feind	-10.1939
▁schwimm	-10.1939
▁solang	-10.1939
▁teu	-10.1939
▁ton	-10.1939
▁traurig	-10.1939
▁blas	-10.2015
▁blum	-10.2015
▁darstell	-10.2015
▁ereigniss	-10.2015
▁fleisch	-10.2015
▁gering	-10.2015
▁gewählt	-10.2015
▁gründet	-10.2015
▁interessanter	-10.2015
▁katz	-10.2015
▁mitarbeit	-10.2015
▁momentan	-10.2015
▁nachts	-10.2015
▁redet	-10.2015
▁rätsel	-10.2015
▁sing	-10.2015
▁unendlich	-10.2015
▁willst	-10.2015
▁äußerst	-10.2015
▁7	-10.2092
▁ans	-10.2092
▁aufgebaut	-10.2092
▁bill	-10.2092
▁brasili	-10.2092
▁buchstab	-10.2092
▁erscheint	-10.2092
▁fasziniert	-10.2092
▁gebraucht	-10.2092
▁heilig	-10.2092
▁jedenfalls	-10.2092
▁konsequenz	-10.2092
▁schlau	-10.2092
▁tonn	-10.2092
▁vorschlag	-10.2092
▁wüst	-10.2092
▁bauern	-10.2169
▁freundin	-10.2169
▁köpf	-10.2169
▁steigt	-10.2169
▁17	-10.2247
▁deutschland	-10.2247
▁fern	-10.2247
▁feststell	-10.2247
▁handlung	-10.2247
▁häus	-10.2247
▁illegal	-10.2247
▁nachbarn	-10.2247
▁post	-10.2247
▁produktion	-10.2247
▁aufnehm	-10.2325
▁bedenk	-10.2325
▁bedeutend	-10.2325
▁maßstab	-10.2325
▁vermitteln	-10.2325
▁wild	-10.2325
▁billion	-10.2404
▁chemikali	-10.2404
▁colleg	-10.2404
▁drin	-10.2404
▁elektrizität	-10.2404
▁erkennt	-10.2404
▁gelöst	-10.2404
▁georg	-10.2404
▁irgendjemand	-10.2404
▁kognitiv	-10.2404
▁kurv	-10.2404
▁quasi	-10.2404
▁spur	-10.2404
▁verdient	-10.2404
▁web	-10.2404
▁zuschau	-10.2404
▁angestellt	-10.2484
▁australi	-10.2484
▁berechnung	-10.2484
▁elefant	-10.2484
▁hinzu	-10.2484
▁kollektiv	-10.2484
▁schwieriger	-10.2484
▁vir	-10.2484
▁vögel	-10.2484
▁wag	-10.2484
▁überlegen	-10.2484
▁bemerk	-10.2564
▁darstellung	-10.2564
▁jährlich	-10.2564
▁mexiko	-10.2564
▁schuh	-10.2564
▁schwach	-10.2564
▁teilweis	-10.2564
▁witz	-10.2564
▁anteil	-10.2645
▁aufzubau	-10.2645
▁beteiligt	-10.2645
▁betreib	-10.2645
▁dumm	-10.2645
▁entfern	-10.2645
▁flog	-10.2645
▁gespielt	-10.2645
▁sam	-10.2645
▁spezifisch	-10.2645
▁trug	-10.2645
▁vermeid	-10.2645
▁versteht	-10.2645
▁wofür	-10.2645
▁zimmer	-10.2645
▁anschaut	-10.2727
▁entfernung	-10.2727
▁körperlich	-10.2727
▁school	-10.2727
▁startet	-10.2727
▁umfeld	-10.2727
▁verfolgt	-10.2727
▁verglich	-10.2727
▁verlang	-10.2727
▁anderson	-10.2809
▁ausgab	-10.2809
▁definiert	-10.2809
▁entwicklungsländern	-10.2809
▁kirch	-10.2809
▁langfristig	-10.2809
▁maus	-10.2809
▁süd	-10.2809
▁unterhaltung	-10.2809
▁wirkung	-10.2809
▁zieht	-10.2809
▁akt	-10.2892
▁argument	-10.2892
▁deutsch	-10.2892
▁ergibt	-10.2892
▁gelebt	-10.2892
▁geschenk	-10.2892
▁heisst	-10.2892
▁katastroph	-10.2892
▁korall	-10.2892
▁korruption	-10.2892
▁küst	-10.2892
▁pferd	-10.2892
▁technologisch	-10.2892
▁teilch	-10.2892
▁toilett	-10.2892
▁verlauf	-10.2892
▁bedrohung	-10.2976
▁dramatisch	-10.2976
▁einstein	-10.2976
▁großmutt	-10.2976
▁hierh	-10.2976
▁höhl	-10.2976
▁insel	-10.2976
▁institut	-10.2976
▁lediglich	-10.2976
▁vereint	-10.2976
▁akzeptier	-10.306
▁angriff	-10.306
▁gemäld	-10.306
▁israel	-10.306
▁klinisch	-10.306
▁kreier	-10.306
▁potential	-10.306
▁präsentation	-10.306
▁ruhig	-10.306
▁seht	-10.306
▁streit	-10.306
▁stress	-10.306
▁verhältnis	-10.306
▁wettbewerb	-10.306
▁übernehm	-10.306
▁überwind	-10.306
▁dach	-10.3145
▁dahint	-10.3145
▁langweilig	-10.3145
▁magi	-10.3145
▁radikal	-10.3145
▁risik	-10.3145
▁schnitt	-10.3145
▁tests	-10.3145
▁twitter	-10.3145
▁wirkt	-10.3145
▁anreiz	-10.3231
▁besorgt	-10.3231
▁bezeichnet	-10.3231
▁darstellt	-10.3231
▁darunt	-10.3231
▁fährt	-10.3231
▁hieß	-10.3231
▁jugendlich	-10.3231
▁liefern	-10.3231
▁merkt	-10.3231
▁op	-10.3231
▁reagiert	-10.3231
▁spür	-10.3231
▁stopp	-10.3231
▁trink	-10.3231
▁videospiel	-10.3231
▁wünscht	-10.3231
▁band	-10.3318
▁beschrieben	-10.3318
▁erhöh	-10.3318
▁erwachsenen	-10.3318
▁französisch	-10.3318
▁geheimnis	-10.3318
▁glas	-10.3318
▁kampagn	-10.3318
▁lüg	-10.3318
▁merk	-10.3318
▁pinguin	-10.3318
▁selbstverständlich	-10.3318
▁sowas	-10.3318
▁tasch	-10.3318
▁wohlstand	-10.3318
▁2008	-10.3405
▁batteri	-10.3405
▁elektronisch	-10.3405
▁gegründet	-10.3405
▁heb	-10.3405
▁ideal	-10.3405
▁jam	-10.3405
▁massiv	-10.3405
▁prototyp	-10.3405
▁psychisch	-10.3405
▁rechn	-10.3405
▁reduziert	-10.3405
▁reist	-10.3405
▁scheinbar	-10.3405
▁seel	-10.3405
▁tötet	-10.3405
▁ägypt	-10.3405
▁ausstellung	-10.3493
▁bezeichn	-10.3493
▁ei	-10.3493
▁gefall	-10.3493
▁kaffe	-10.3493
▁pfund	-10.3493
▁plattform	-10.3493
▁stoff	-10.3493
▁ursach	-10.3493
▁wiederholt	-10.3493
▁zähn	-10.3493
▁abschluss	-10.3582
▁anführ	-10.3582
▁ausnahm	-10.3582
▁dinosauri	-10.3582
▁ehr	-10.3582
▁ländlich	-10.3582
▁südafrika	-10.3582
▁45	-10.3672
▁afrikas	-10.3672
▁chirurg	-10.3672
▁debatt	-10.3672
▁dien	-10.3672
▁erwartung	-10.3672
▁gas	-10.3672
▁i	-10.3672
▁insbesonder	-10.3672
▁kenia	-10.3672
▁klinik	-10.3672
▁ratt	-10.3672
▁sicher	-10.3672
▁verbesserung	-10.3672
▁vorzustell	-10.3672
▁überraschung	-10.3672
▁übung	-10.3672
▁aufs	-10.3762
▁autor	-10.3762
▁bietet	-10.3762
▁dienst	-10.3762
▁investiert	-10.3762
▁jünger	-10.3762
▁leichter	-10.3762
▁nas	-10.3762
▁pfleg	-10.3762
▁spring	-10.3762
▁stieg	-10.3762
▁verließ	-10.3762
▁worauf	-10.3762
▁zeichnung	-10.3762
▁basierend	-10.3854
▁besitzt	-10.3854
▁dargestellt	-10.3854
▁francisco	-10.3854
▁gesundheitswes	-10.3854
▁geteilt	-10.3854
▁gleichung	-10.3854
▁heil	-10.3854
▁komponent	-10.3854
▁metaph	-10.3854
▁nigeria	-10.3854
▁rauch	-10.3854
▁sammelt	-10.3854
▁sand	-10.3854
▁tauch	-10.3854
▁umgeben	-10.3854
▁woran	-10.3854
▁11.	-10.3946
▁anhand	-10.3946
▁demokratisch	-10.3946
▁erforscht	-10.3946
▁froh	-10.3946
▁füll	-10.3946
▁genieß	-10.3946
▁spend	-10.3946
▁staatlich	-10.3946
▁stuhl	-10.3946
▁voraus	-10.3946
▁vorbereitet	-10.3946
▁ansieht	-10.4039
▁beeindruckend	-10.4039
▁belohnung	-10.4039
▁br	-10.4039
▁entsprechend	-10.4039
▁erweitern	-10.4039
▁existenz	-10.4039
▁gefang	-10.4039
▁gegenwart	-10.4039
▁handel	-10.4039
▁intellektuell	-10.4039
▁könig	-10.4039
▁löch	-10.4039
▁paul	-10.4039
▁schatt	-10.4039
▁verbrech	-10.4039
▁wal	-10.4039
▁wend	-10.4039
▁weshalb	-10.4039
▁wiederhol	-10.4039
▁zweimal	-10.4039
▁ausgebildet	-10.4133
▁ball	-10.4133
▁bedarf	-10.4133
▁beton	-10.4133
▁charl	-10.4133
▁dünn	-10.4133
▁enthält	-10.4133
▁gebrauch	-10.4133
▁gebrochen	-10.4133
▁gekauft	-10.4133
▁gesellschaftlich	-10.4133
▁güt	-10.4133
▁kanada	-10.4133
▁koloni	-10.4133
▁mittlerweil	-10.4133
▁organisier	-10.4133
▁renn	-10.4133
▁üblich	-10.4133
▁aktion	-10.4228
▁atm	-10.4228
▁aufgewachs	-10.4228
▁beibring	-10.4228
▁durchschnitt	-10.4228
▁erneut	-10.4228
▁eröffnet	-10.4228
▁innovativ	-10.4228
▁lächeln	-10.4228
▁löst	-10.4228
▁mehrheit	-10.4228
▁mocht	-10.4228
▁nutzung	-10.4228
▁versag	-10.4228
▁wovon	-10.4228
▁2010	-10.4323
▁99	-10.4323
▁berichtet	-10.4323
▁durft	-10.4323
▁effizient	-10.4323
▁erkrankung	-10.4323
▁freu	-10.4323
▁früher	-10.4323
▁geistig	-10.4323
▁glücklicherweis	-10.4323
▁harvard	-10.4323
▁infiziert	-10.4323
▁interview	-10.4323
▁journalist	-10.4323
▁malaria	-10.4323
▁müll	-10.4323
▁respekt	-10.4323
▁schicksal	-10.4323
▁stammzell	-10.4323
▁städtisch	-10.4323
▁vermut	-10.4323
▁versorg	-10.4323
▁19.	-10.442
▁betrieben	-10.442
▁c	-10.442
▁durchführ	-10.442
▁erwähn	-10.442
▁fundamental	-10.442
▁gericht	-10.442
▁nachbarschaft	-10.442
▁neig	-10.442
▁soweit	-10.442
▁wachsend	-10.442
▁worum	-10.442
▁wänd	-10.442
▁wüsst	-10.442
▁ökonom	-10.442
▁9	-10.4517
▁al	-10.4517
▁beend	-10.4517
▁blatt	-10.4517
▁gart	-10.4517
▁geholf	-10.4517
▁gewann	-10.4517
▁hervor	-10.4517
▁iphon	-10.4517
▁japanisch	-10.4517
▁mut	-10.4517
▁nervenzell	-10.4517
▁pakistan	-10.4517
▁partei	-10.4517
▁reg	-10.4517
▁streb	-10.4517
▁wenigstens	-10.4517
▁ökologisch	-10.4517
▁ökonomisch	-10.4517
▁ausgesetzt	-10.4616
▁bezüglich	-10.4616
▁empfind	-10.4616
▁gerechtigkeit	-10.4616
▁gold	-10.4616
▁gras	-10.4616
▁gt	-10.4616
▁high	-10.4616
▁lebensmittel	-10.4616
▁persönlichkeit	-10.4616
▁physikalisch	-10.4616
▁russland	-10.4616
▁satellit	-10.4616
▁sichtweis	-10.4616
▁störung	-10.4616
▁terrorismus	-10.4616
▁theat	-10.4616
▁versprech	-10.4616
▁veröffentlich	-10.4616
▁vorstellungskraft	-10.4616
▁zufall	-10.4616
▁atom	-10.4715
▁endet	-10.4715
▁furchtbar	-10.4715
▁genügend	-10.4715
▁getrennt	-10.4715
▁intensiv	-10.4715
▁knapp	-10.4715
▁lt	-10.4715
▁nachgedacht	-10.4715
▁nervös	-10.4715
▁schlug	-10.4715
▁symptom	-10.4715
▁unmittelbar	-10.4715
▁viertel	-10.4715
▁zuck	-10.4715
▁überzeugung	-10.4715
▁ah	-10.4816
▁auseinand	-10.4816
▁begreif	-10.4816
▁chines	-10.4816
▁darwin	-10.4816
▁e	-10.4816
▁ereignis	-10.4816
▁erschien	-10.4816
▁gelangt	-10.4816
▁insgesamt	-10.4816
▁kapitel	-10.4816
▁kümmert	-10.4816
▁lück	-10.4816
▁nasa	-10.4816
▁schlang	-10.4816
▁spielzeug	-10.4816
▁streck	-10.4816
▁szen	-10.4816
▁world	-10.4816
▁youtub	-10.4816
▁zug	-10.4816
▁zählt	-10.4816
▁aufgeregt	-10.4917
▁inspiration	-10.4917
▁irgendwelch	-10.4917
▁prinzipi	-10.4917
▁regelmäßig	-10.4917
▁schreibt	-10.4917
▁schwed	-10.4917
▁sinnvoll	-10.4917
▁verdammt	-10.4917
▁verletzt	-10.4917
▁wahrnehm	-10.4917
▁weltkrieg	-10.4917
▁ältest	-10.4917
▁berühr	-10.502
▁bomb	-10.502
▁chaos	-10.502
▁chicago	-10.502
▁falt	-10.502
▁frisch	-10.502
▁geburtstag	-10.502
▁hell	-10.502
▁hinzufüg	-10.502
▁inzwisch	-10.502
▁lebenserwartung	-10.502
▁therapi	-10.502
▁tödlich	-10.502
▁verlangt	-10.502
▁übersetz	-10.502
▁2007	-10.5124
▁angel	-10.5124
▁anscheinend	-10.5124
▁besess	-10.5124
▁boston	-10.5124
▁dient	-10.5124
▁eingeladen	-10.5124
▁einst	-10.5124
▁erweitert	-10.5124
▁eu	-10.5124
▁gelehrt	-10.5124
▁gesammelt	-10.5124
▁hung	-10.5124
▁häng	-10.5124
▁jüngst	-10.5124
▁kleidung	-10.5124
▁kommentar	-10.5124
▁kreatur	-10.5124
▁mitnehm	-10.5124
▁neuigkeit	-10.5124
▁paris	-10.5124
▁schlussendlich	-10.5124
▁schwein	-10.5124
▁skulptur	-10.5124
▁vielmehr	-10.5124
▁wechseln	-10.5124
▁abstrakt	-10.5228
▁ach	-10.5228
▁computern	-10.5228
▁dankbar	-10.5228
▁fürs	-10.5228
▁klima	-10.5228
▁literatur	-10.5228
▁magazin	-10.5228
▁merkmal	-10.5228
▁merkwürdig	-10.5228
▁pilz	-10.5228
▁professionell	-10.5228
▁relevant	-10.5228
▁restaurant	-10.5228
▁spannend	-10.5228
▁spiegel	-10.5228
▁stabil	-10.5228
▁unerwartet	-10.5228
▁unterwegs	-10.5228
▁usw	-10.5228
▁verursach	-10.5228
▁wütend	-10.5228
▁x	-10.5228
▁überlebt	-10.5228
▁1.000	-10.5334
▁100.000	-10.5334
▁ausdrück	-10.5334
▁austausch	-10.5334
▁begegn	-10.5334
▁beliebig	-10.5334
▁deiner	-10.5334
▁drittens	-10.5334
▁enthalt	-10.5334
▁erlebnis	-10.5334
▁ernähr	-10.5334
▁golf	-10.5334
▁hinterlass	-10.5334
▁liefert	-10.5334
▁michael	-10.5334
▁symmetri	-10.5334
▁verbreitung	-10.5334
▁verletzung	-10.5334
▁voneinand	-10.5334
▁vorsichtig	-10.5334
▁ökosyst	-10.5334
▁2005	-10.5441
▁beliebt	-10.5441
▁chemi	-10.5441
▁erzählung	-10.5441
▁kleinst	-10.5441
▁press	-10.5441
▁psychologisch	-10.5441
▁süß	-10.5441
▁ums	-10.5441
▁umzugeh	-10.5441
▁university	-10.5441
▁verliert	-10.5441
▁verschwund	-10.5441
▁wikipedia	-10.5441
▁ausgeb	-10.5549
▁bekämpf	-10.5549
▁brust	-10.5549
▁echtzeit	-10.5549
▁feiern	-10.5549
▁flach	-10.5549
▁flasch	-10.5549
▁gestaltet	-10.5549
▁liebst	-10.5549
▁nebenbei	-10.5549
▁neugierig	-10.5549
▁option	-10.5549
▁robert	-10.5549
▁schrift	-10.5549
▁sensor	-10.5549
▁stämm	-10.5549
▁vorträg	-10.5549
▁wirk	-10.5549
▁wohnung	-10.5549
▁zeichnet	-10.5549
▁zeitraum	-10.5549
▁zerstörung	-10.5549
▁abgeseh	-10.5659
▁algorithm	-10.5659
▁analys	-10.5659
▁angeht	-10.5659
▁beacht	-10.5659
▁beobachtung	-10.5659
▁bewirk	-10.5659
▁bibliothek	-10.5659
▁dreidimensional	-10.5659
▁eingeführt	-10.5659
▁exakt	-10.5659
▁farm	-10.5659
▁führung	-10.5659
▁handys	-10.5659
▁holz	-10.5659
▁ignorier	-10.5659
▁konfrontiert	-10.5659
▁lehrt	-10.5659
▁psychologi	-10.5659
▁sms	-10.5659
▁stift	-10.5659
▁teleskop	-10.5659
▁tätigkeit	-10.5659
▁verwendung	-10.5659
▁wint	-10.5659
▁600	-10.5769
▁75	-10.5769
▁anzuseh	-10.5769
▁bedroht	-10.5769
▁dauern	-10.5769
▁ergeb	-10.5769
▁ewig	-10.5769
▁fossil	-10.5769
▁fotografiert	-10.5769
▁führend	-10.5769
▁golden	-10.5769
▁interaktiv	-10.5769
▁kohl	-10.5769
▁laptop	-10.5769
▁letztlich	-10.5769
▁maßnahm	-10.5769
▁mechanisch	-10.5769
▁mikrob	-10.5769
▁potenzial	-10.5769
▁sektor	-10.5769
▁teams	-10.5769
▁terrorist	-10.5769
▁womit	-10.5769
▁zehntausend	-10.5769
▁1000	-10.5881
▁adam	-10.5881
▁afrikan	-10.5881
▁anbiet	-10.5881
▁andererseits	-10.5881
▁befand	-10.5881
▁epidemi	-10.5881
▁erfass	-10.5881
▁fett	-10.5881
▁fokus	-10.5881
▁frankreich	-10.5881
▁gezog	-10.5881
▁islam	-10.5881
▁jeglich	-10.5881
▁kategori	-10.5881
▁klassenzimm	-10.5881
▁kni	-10.5881
▁kreiert	-10.5881
▁machst	-10.5881
▁mittels	-10.5881
▁plastik	-10.5881
▁population	-10.5881
▁scheitern	-10.5881
▁stiftung	-10.5881
▁strand	-10.5881
▁studierend	-10.5881
▁taucht	-10.5881
▁vorhin	-10.5881
▁ära	-10.5881
▁anpass	-10.5994
▁asi	-10.5994
▁bedeckt	-10.5994
▁bestandteil	-10.5994
▁brennstoff	-10.5994
▁denkweis	-10.5994
▁e-mail	-10.5994
▁ernährung	-10.5994
▁evolutionär	-10.5994
▁holt	-10.5994
▁integriert	-10.5994
▁mama	-10.5994
▁männch	-10.5994
▁show	-10.5994
▁sonnenlicht	-10.5994
▁talent	-10.5994
▁treib	-10.5994
▁wählt	-10.5994
▁achs	-10.6108
▁alltäglich	-10.6108
▁angelegenheit	-10.6108
▁auswahl	-10.6108
▁beendet	-10.6108
▁biolog	-10.6108
▁dunkelheit	-10.6108
▁dynamisch	-10.6108
▁geheim	-10.6108
▁geringer	-10.6108
▁grab	-10.6108
▁grau	-10.6108
▁herunt	-10.6108
▁identifizier	-10.6108
▁illusion	-10.6108
▁impfstoff	-10.6108
▁island	-10.6108
▁logisch	-10.6108
▁militär	-10.6108
▁obama	-10.6108
▁seri	-10.6108
▁status	-10.6108
▁trat	-10.6108
▁vogel	-10.6108
▁beigebracht	-10.6224
▁bescheid	-10.6224
▁cm	-10.6224
▁erfüllt	-10.6224
▁gesetzt	-10.6224
▁griff	-10.6224
▁interessanterweis	-10.6224
▁kameras	-10.6224
▁kist	-10.6224
▁küch	-10.6224
▁liv	-10.6224
▁lächerlich	-10.6224
▁organisch	-10.6224
▁sauber	-10.6224
▁selten	-10.6224
▁sequenz	-10.6224
▁umgekehrt	-10.6224
▁unfall	-10.6224
▁ursprung	-10.6224
▁versteck	-10.6224
▁weisheit	-10.6224
▁zweifel	-10.6224
▁2009	-10.6341
▁ausgewählt	-10.6341
▁bewahr	-10.6341
▁dazwisch	-10.6341
▁eingebaut	-10.6341
▁erfuhr	-10.6341
▁exponentiell	-10.6341
▁finanziert	-10.6341
▁gerettet	-10.6341
▁hunderttausend	-10.6341
▁islamisch	-10.6341
▁kaputt	-10.6341
▁konsument	-10.6341
▁magisch	-10.6341
▁niveau	-10.6341
▁problems	-10.6341
▁quadrat	-10.6341
▁ring	-10.6341
▁wozu	-10.6341
▁zufried	-10.6341
▁örtlich	-10.6341
▁21	-10.6459
▁animation	-10.6459
▁ausmach	-10.6459
▁denselb	-10.6459
▁detail	-10.6459
▁dienstleistung	-10.6459
▁haiti	-10.6459
▁herrscht	-10.6459
▁level	-10.6459
▁musikalisch	-10.6459
▁mäus	-10.6459
▁raket	-10.6459
▁schalt	-10.6459
▁schuf	-10.6459
▁verblüffend	-10.6459
▁verliebt	-10.6459
▁warm	-10.6459
▁zurückgeh	-10.6459
▁ärmst	-10.6459
▁anzeig	-10.6579
▁berechn	-10.6579
▁box	-10.6579
▁brech	-10.6579
▁erneuerbar	-10.6579
▁ernt	-10.6579
▁ersetzt	-10.6579
▁fair	-10.6579
▁gebildet	-10.6579
▁geschützt	-10.6579
▁gestartet	-10.6579
▁ghana	-10.6579
▁kohlenstoff	-10.6579
▁kongo	-10.6579
▁nachhaltigkeit	-10.6579
▁repräsentiert	-10.6579
▁spektrum	-10.6579
▁teenag	-10.6579
▁überlegt	-10.6579
▁angepasst	-10.67
▁anstieg	-10.67
▁bg	-10.67
▁bus	-10.67
▁dokument	-10.67
▁gewöhnt	-10.67
▁glücklicher	-10.67
▁hingeh	-10.67
▁hypothes	-10.67
▁medium	-10.67
▁mobiltelefon	-10.67
▁thomas	-10.67
▁verschied	-10.67
▁zurückkehr	-10.67
▁übersetzt	-10.67
▁dunkel	-10.6823
▁einfachheit	-10.6823
▁erfand	-10.6823
▁gedächtnis	-10.6823
▁gleichgewicht	-10.6823
▁heirat	-10.6823
▁humor	-10.6823
▁motivation	-10.6823
▁nerv	-10.6823
▁saal	-10.6823
▁teufel	-10.6823
▁trick	-10.6823
▁umso	-10.6823
▁ungleichheit	-10.6823
▁verschiedener	-10.6823
▁weltraum	-10.6823
▁wissenschaftlern	-10.6823
▁23	-10.6947
▁analysier	-10.6947
▁ausmacht	-10.6947
▁aussah	-10.6947
▁beschreibt	-10.6947
▁brach	-10.6947
▁einschränkung	-10.6947
▁ethisch	-10.6947
▁flug	-10.6947
▁haushalt	-10.6947
▁hervorragend	-10.6947
▁hotel	-10.6947
▁höhepunkt	-10.6947
▁inspirier	-10.6947
▁kongress	-10.6947
▁mangel	-10.6947
▁militärisch	-10.6947
▁molekular	-10.6947
▁optimistisch	-10.6947
▁ritual	-10.6947
▁schätzung	-10.6947
▁sport	-10.6947
▁studio	-10.6947
▁summ	-10.6947
▁säugetier	-10.6947
▁verfahren	-10.6947
▁vergnüg	-10.6947
▁angesichts	-10.7073
▁anlag	-10.7073
▁anstrengung	-10.7073
▁asteroid	-10.7073
▁at	-10.7073
▁betroff	-10.7073
▁drohn	-10.7073
▁flüssigkeit	-10.7073
▁gelassen	-10.7073
▁größenordnung	-10.7073
▁hinblick	-10.7073
▁kabel	-10.7073
▁kapital	-10.7073
▁konservativ	-10.7073
▁korrekt	-10.7073
▁mem	-10.7073
▁mental	-10.7073
▁microsoft	-10.7073
▁nachfrag	-10.7073
▁neuest	-10.7073
▁spinn	-10.7073
▁stirbt	-10.7073
▁street	-10.7073
▁te	-10.7073
▁verbraucht	-10.7073
▁vorgang	-10.7073
▁willkommen	-10.7073
▁wäld	-10.7073
▁auslös	-10.72
▁dh	-10.72
▁drauf	-10.72
▁erfüll	-10.72
▁fliegt	-10.72
▁gegenwärtig	-10.72
▁hinunt	-10.72
▁jeweils	-10.72
▁kling	-10.72
▁kämpft	-10.72
▁organismus	-10.72
▁philosophi	-10.72
▁reparier	-10.72
▁schweiz	-10.72
▁sorgt	-10.72
▁stoß	-10.72
▁sätz	-10.72
▁tja	-10.72
▁unwahrscheinlich	-10.72
▁verschwand	-10.72
▁verteil	-10.72
▁altern	-10.7329
▁angemessen	-10.7329
▁diesmal	-10.7329
▁diskutier	-10.7329
▁fels	-10.7329
▁gemessen	-10.7329
▁hack	-10.7329
▁herstellung	-10.7329
▁hübsch	-10.7329
▁jenseits	-10.7329
▁platt	-10.7329
▁psycholog	-10.7329
▁rational	-10.7329
▁schöner	-10.7329
▁systematisch	-10.7329
▁tragödi	-10.7329
▁unterhalt	-10.7329
▁wut	-10.7329
▁2006	-10.746
▁autismus	-10.746
▁befass	-10.746
▁dns	-10.746
▁effizienz	-10.746
▁erdbeb	-10.746
▁gefährdet	-10.746
▁gemüs	-10.746
▁greif	-10.746
▁logik	-10.746
▁muskeln	-10.746
▁offiziell	-10.746
▁paus	-10.746
▁poll	-10.746
▁schwerer	-10.746
▁spannung	-10.746
▁spirituell	-10.746
▁standpunkt	-10.746
▁umfrag	-10.746
▁verteilung	-10.746
▁verurteilt	-10.746
▁weltbevölkerung	-10.746
▁19	-10.7592
▁abends	-10.7592
▁angebot	-10.7592
▁anweisung	-10.7592
▁ausrüstung	-10.7592
▁ausschließlich	-10.7592
▁bibel	-10.7592
▁einfachst	-10.7592
▁entschuldigung	-10.7592
▁fürcht	-10.7592
▁gemeinnützig	-10.7592
▁geöffnet	-10.7592
▁herausstellt	-10.7592
▁identisch	-10.7592
▁klick	-10.7592
▁leitet	-10.7592
▁mio.	-10.7592
▁n	-10.7592
▁polizist	-10.7592
▁potentiell	-10.7592
▁sendung	-10.7592
▁systems	-10.7592
▁texas	-10.7592
▁theoretisch	-10.7592
▁täuschung	-10.7592
▁universell	-10.7592
▁unterrichtet	-10.7592
▁verkehr	-10.7592
▁abfall	-10.7726
▁ausreichend	-10.7726
▁befrei	-10.7726
▁bf	-10.7726
▁büchern	-10.7726
▁dynamik	-10.7726
▁erfordert	-10.7726
▁herausfand	-10.7726
▁hinsichtlich	-10.7726
▁initiativ	-10.7726
▁isoliert	-10.7726
▁kommerziell	-10.7726
▁kopi	-10.7726
▁lung	-10.7726
▁metern	-10.7726
▁neulich	-10.7726
▁offenbar	-10.7726
▁reicher	-10.7726
▁stil	-10.7726
▁transparenz	-10.7726
▁trän	-10.7726
▁vermittelt	-10.7726
▁vernünftig	-10.7726
▁wach	-10.7726
▁amerikas	-10.7863
▁angeh	-10.7863
▁auftaucht	-10.7863
▁ausgeh	-10.7863
▁außerordentlich	-10.7863
▁beschreibung	-10.7863
▁braun	-10.7863
▁brustkrebs	-10.7863
▁circa	-10.7863
▁dauerhaft	-10.7863
▁dialog	-10.7863
▁doktor	-10.7863
▁erfasst	-10.7863
▁fehlend	-10.7863
▁festgestellt	-10.7863
▁formt	-10.7863
▁genial	-10.7863
▁giftig	-10.7863
▁gröss	-10.7863
▁hilfreich	-10.7863
▁höll	-10.7863
▁intuition	-10.7863
▁januar	-10.7863
▁juni	-10.7863
▁komplizierter	-10.7863
▁lins	-10.7863
▁nachdenkt	-10.7863
▁probier	-10.7863
▁radio	-10.7863
▁schaf	-10.7863
▁schieß	-10.7863
▁schneid	-10.7863
▁trend	-10.7863
▁uganda	-10.7863
▁unglücklich	-10.7863
▁vorbild	-10.7863
▁weibch	-10.7863
▁zugleich	-10.7863
▁120	-10.8
▁2004	-10.8
▁27	-10.8
▁aufzeichnung	-10.8
▁beschränkt	-10.8
▁bord	-10.8
▁designs	-10.8
▁eingeh	-10.8
▁fließt	-10.8
▁getestet	-10.8
▁globalisierung	-10.8
▁kunstwerk	-10.8
▁lehrern	-10.8
▁präsentier	-10.8
▁roman	-10.8
▁romantisch	-10.8
▁ruh	-10.8
▁sammlung	-10.8
▁schult	-10.8
▁simulation	-10.8
▁sup	-10.8
▁südlich	-10.8
▁usw.	-10.8
▁valley	-10.8
▁warf	-10.8
▁werdet	-10.8
▁wohn	-10.8
▁zahlreich	-10.8
▁zurückkomm	-10.8
▁äußer	-10.8
▁überprüf	-10.8
▁appl	-10.814
▁ausgegeben	-10.814
▁beträgt	-10.814
▁brillant	-10.814
▁fotograf	-10.814
▁general	-10.814
▁gerat	-10.814
▁gezwung	-10.814
▁ha	-10.814
▁hinauf	-10.814
▁impuls	-10.814
▁kritik	-10.814
▁löw	-10.814
▁metall	-10.814
▁muslim	-10.814
▁privatsphär	-10.814
▁rettet	-10.814
▁schauspiel	-10.814
▁schweig	-10.814
▁stets	-10.814
▁variation	-10.814
▁verrat	-10.814
▁verschwindet	-10.814
▁versorgung	-10.814
▁vorgestellt	-10.814
▁vorwärts	-10.814
▁weh	-10.814
▁250	-10.8282
▁abhängigkeit	-10.8282
▁anfängt	-10.8282
▁aufstieg	-10.8282
▁auftret	-10.8282
▁aß	-10.8282
▁beschleunigt	-10.8282
▁betreten	-10.8282
▁bezieh	-10.8282
▁bier	-10.8282
▁diabet	-10.8282
▁diagnos	-10.8282
▁elektron	-10.8282
▁entstehung	-10.8282
▁erlang	-10.8282
▁erricht	-10.8282
▁fügt	-10.8282
▁geruch	-10.8282
▁herstellt	-10.8282
▁hinderniss	-10.8282
▁inklusiv	-10.8282
▁la	-10.8282
▁lif	-10.8282
▁milch	-10.8282
▁mutig	-10.8282
▁nahezu	-10.8282
▁nährstoff	-10.8282
▁pet	-10.8282
▁schwestern	-10.8282
▁sorgfältig	-10.8282
▁spontan	-10.8282
▁uni	-10.8282
▁ökosystem	-10.8282
▁2001	-10.8426
▁beschütz	-10.8426
▁budget	-10.8426
▁dan	-10.8426
▁delfin	-10.8426
▁ehemalig	-10.8426
▁entwarf	-10.8426
▁erkund	-10.8426
▁gat	-10.8426
▁geeignet	-10.8426
▁geliebt	-10.8426
▁geschlecht	-10.8426
▁hitz	-10.8426
▁kg	-10.8426
▁kooperation	-10.8426
▁käm	-10.8426
▁last	-10.8426
▁patent	-10.8426
▁sicherer	-10.8426
▁stahl	-10.8426
▁trainier	-10.8426
▁trends	-10.8426
▁trenn	-10.8426
▁umgang	-10.8426
▁verarbeit	-10.8426
▁verzweifelt	-10.8426
▁weitermach	-10.8426
▁wurzeln	-10.8426
▁zuletzt	-10.8426
▁öft	-10.8426
▁akzeptiert	-10.8572
▁anhalt	-10.8572
▁aufrecht	-10.8572
▁auftrag	-10.8572
▁auszudrück	-10.8572
▁behinderung	-10.8572
▁berat	-10.8572
▁besaß	-10.8572
▁diskutiert	-10.8572
▁einblick	-10.8572
▁entwicklungsländ	-10.8572
▁explosion	-10.8572
▁frank	-10.8572
▁frequenz	-10.8572
▁gegenständ	-10.8572
▁geworf	-10.8572
▁herzlich	-10.8572
▁jugend	-10.8572
▁kombinier	-10.8572
▁kombiniert	-10.8572
▁moral	-10.8572
▁nimm	-10.8572
▁oxford	-10.8572
▁profitier	-10.8572
▁schülern	-10.8572
▁tom	-10.8572
▁training	-10.8572
▁umzusetz	-10.8572
▁unterhalb	-10.8572
▁verdoppelt	-10.8572
▁akteur	-10.872
▁allererst	-10.872
▁anerkennung	-10.872
▁bedeutsam	-10.872
▁bestehend	-10.872
▁bewert	-10.872
▁bewohn	-10.872
▁blickwinkel	-10.872
▁erledig	-10.872
▁fantasi	-10.872
▁flügel	-10.872
▁gesundheitssystem	-10.872
▁hässlich	-10.872
▁konkret	-10.872
▁kreuz	-10.872
▁künstlerisch	-10.872
▁lenk	-10.872
▁mechanismus	-10.872
▁menschlichkeit	-10.872
▁motiviert	-10.872
▁papa	-10.872
▁polio	-10.872
▁produktiv	-10.872
▁schlagzeil	-10.872
▁schne	-10.872
▁treibt	-10.872
▁verbrenn	-10.872
▁vergleichbar	-10.872
▁verringern	-10.872
▁voraussag	-10.872
▁wodurch	-10.872
▁5.000	-10.8871
▁angekomm	-10.8871
▁angetrieben	-10.8871
▁ausführ	-10.8871
▁autonom	-10.8871
▁bedien	-10.8871
▁datenbank	-10.8871
▁disziplin	-10.8871
▁erkenntniss	-10.8871
▁for	-10.8871
▁fotografi	-10.8871
▁futt	-10.8871
▁gefüllt	-10.8871
▁gewinnt	-10.8871
▁glühbirn	-10.8871
▁irgendwas	-10.8871
▁lud	-10.8871
▁läng	-10.8871
▁materiell	-10.8871
▁mobil	-10.8871
▁philosoph	-10.8871
▁praxis	-10.8871
▁rezept	-10.8871
▁ruanda	-10.8871
▁schlacht	-10.8871
▁schwäch	-10.8871
▁scienc	-10.8871
▁senk	-10.8871
▁verhindert	-10.8871
▁widm	-10.8871
▁überlass	-10.8871
▁1960	-10.9023
▁abgeschlossen	-10.9023
▁analogi	-10.9023
▁befehl	-10.9023
▁berechnet	-10.9023
▁bewirkt	-10.9023
▁big	-10.9023
▁billiger	-10.9023
▁bip	-10.9023
▁chef	-10.9023
▁definitiv	-10.9023
▁einzusetz	-10.9023
▁erwärmung	-10.9023
▁ethnisch	-10.9023
▁fass	-10.9023
▁gegenstand	-10.9023
▁gegessen	-10.9023
▁generell	-10.9023
▁gewissermaß	-10.9023
▁gipfel	-10.9023
▁gripp	-10.9023
▁kb	-10.9023
▁kriminell	-10.9023
▁kugel	-10.9023
▁manag	-10.9023
▁menschenrecht	-10.9023
▁min	-10.9023
▁muslimisch	-10.9023
▁nochmals	-10.9023
▁nordamerika	-10.9023
▁nuklear	-10.9023
▁plus	-10.9023
▁plän	-10.9023
▁priorität	-10.9023
▁schief	-10.9023
▁schließt	-10.9023
▁schrei	-10.9023
▁solarzell	-10.9023
▁t	-10.9023
▁umfasst	-10.9023
▁us	-10.9023
▁variant	-10.9023
▁verknüpft	-10.9023
▁vernetzt	-10.9023
▁weich	-10.9023
▁weltall	-10.9023
▁wärm	-10.9023
▁1990	-10.9178
▁22	-10.9178
▁95	-10.9178
▁arbeitsplätz	-10.9178
▁baustein	-10.9178
▁beleg	-10.9178
▁bereitet	-10.9178
▁blätter	-10.9178
▁bürgerkrieg	-10.9178
▁ehemann	-10.9178
▁einstell	-10.9178
▁fahrrad	-10.9178
▁fordert	-10.9178
▁freundlich	-10.9178
▁fünft	-10.9178
▁geblieben	-10.9178
▁geländ	-10.9178
▁geplant	-10.9178
▁gigantisch	-10.9178
▁gleichheit	-10.9178
▁hindurch	-10.9178
▁jo	-10.9178
▁kapazität	-10.9178
▁korallenriff	-10.9178
▁martin	-10.9178
▁passend	-10.9178
▁rohstoff	-10.9178
▁scham	-10.9178
▁scheib	-10.9178
▁schreibtisch	-10.9178
▁tipp	-10.9178
▁tritt	-10.9178
▁ungeheu	-10.9178
▁unterscheidet	-10.9178
▁verheiratet	-10.9178
▁2003	-10.9336
▁angenehm	-10.9336
▁angeschaut	-10.9336
▁betrieb	-10.9336
▁branch	-10.9336
▁dreimal	-10.9336
▁erheblich	-10.9336
▁erledigt	-10.9336
▁existierend	-10.9336
▁extern	-10.9336
▁flüchtling	-10.9336
▁fress	-10.9336
▁geredet	-10.9336
▁gesünder	-10.9336
▁grossartig	-10.9336
▁ignoriert	-10.9336
▁inmitt	-10.9336
▁internets	-10.9336
▁involviert	-10.9336
▁kommend	-10.9336
▁l	-10.9336
▁müh	-10.9336
▁onkel	-10.9336
▁quot	-10.9336
▁regional	-10.9336
▁restlich	-10.9336
▁schaltkreis	-10.9336
▁schnellst	-10.9336
▁sicherstell	-10.9336
▁stieß	-10.9336
▁strass	-10.9336
▁säul	-10.9336
▁tempo	-10.9336
▁trainiert	-10.9336
▁tricks	-10.9336
▁tropf	-10.9336
▁vielerlei	-10.9336
▁wirksam	-10.9336
▁wissens	-10.9336
▁wohlbefind	-10.9336
▁zeitschrift	-10.9336
▁20.000	-10.9496
▁ansonst	-10.9496
▁anzuschau	-10.9496
▁attraktiv	-10.9496
▁auftritt	-10.9496
▁beschleunig	-10.9496
▁bär	-10.9496
▁derek	-10.9496
▁dringend	-10.9496
▁durchzuführ	-10.9496
▁einschließlich	-10.9496
▁februar	-10.9496
▁finanzier	-10.9496
▁fleck	-10.9496
▁fliegend	-10.9496
▁geschloss	-10.9496
▁geschäftsmodell	-10.9496
▁homo	-10.9496
▁juli	-10.9496
▁jüdisch	-10.9496
▁kompromiss	-10.9496
▁konstant	-10.9496
▁mahlzeit	-10.9496
▁mau	-10.9496
▁mitteil	-10.9496
▁norm	-10.9496
▁oktob	-10.9496
▁pilot	-10.9496
▁pm	-10.9496
▁reichtum	-10.9496
▁richtet	-10.9496
▁schwanger	-10.9496
▁schwanz	-10.9496
▁stanford	-10.9496
▁substanz	-10.9496
▁tendenz	-10.9496
▁tät	-10.9496
▁versagt	-10.9496
▁vertikal	-10.9496
▁voraussetzung	-10.9496
▁wirft	-10.9496
▁50.000	-10.9658
▁abendess	-10.9658
▁akademisch	-10.9658
▁ankomm	-10.9658
▁anzeich	-10.9658
▁aufwuchs	-10.9658
▁bandbreit	-10.9658
▁bedürfnis	-10.9658
▁befragt	-10.9658
▁begegnet	-10.9658
▁begleitet	-10.9658
▁begriffen	-10.9658
▁blog	-10.9658
▁drückt	-10.9658
▁echter	-10.9658
▁erforschung	-10.9658
▁erziel	-10.9658
▁füg	-10.9658
▁geschlagen	-10.9658
▁gestaltung	-10.9658
▁heran	-10.9658
▁hormon	-10.9658
▁informiert	-10.9658
▁inseln	-10.9658
▁kapitalismus	-10.9658
▁kluft	-10.9658
▁knopf	-10.9658
▁kopier	-10.9658
▁kuh	-10.9658
▁lebensqualität	-10.9658
▁mischung	-10.9658
▁optisch	-10.9658
▁parallel	-10.9658
▁regenwald	-10.9658
▁schmerzhaft	-10.9658
▁sendet	-10.9658
▁statistisch	-10.9658
▁studium	-10.9658
▁transparent	-10.9658
▁ultimativ	-10.9658
▁vielfältig	-10.9658
▁wandert	-10.9658
▁weltbank	-10.9658
▁würdest	-10.9658
▁zugeb	-10.9658
▁abenteu	-10.9824
▁allzu	-10.9824
▁anzugeh	-10.9824
▁arbeitsplatz	-10.9824
▁aufmerksam	-10.9824
▁ausschnitt	-10.9824
▁autorität	-10.9824
▁bestätigt	-10.9824
▁bundesstaat	-10.9824
▁durchs	-10.9824
▁eingriff	-10.9824
▁energieverbrauch	-10.9824
▁entgeg	-10.9824
▁entschlossen	-10.9824
▁entwurf	-10.9824
▁erb	-10.9824
▁erstaunt	-10.9824
▁etc	-10.9824
▁fließ	-10.9824
▁florida	-10.9824
▁fotografier	-10.9824
▁geleitet	-10.9824
▁günstig	-10.9824
▁intuitiv	-10.9824
▁itali	-10.9824
▁kilo	-10.9824
▁kindersterblichkeit	-10.9824
▁konstruiert	-10.9824
▁käf	-10.9824
▁lacht	-10.9824
▁leucht	-10.9824
▁längst	-10.9824
▁marketing	-10.9824
▁misch	-10.9824
▁offenheit	-10.9824
▁optimismus	-10.9824
▁pack	-10.9824
▁rechtlich	-10.9824
▁russisch	-10.9824
▁seil	-10.9824
▁speichern	-10.9824
▁stattfind	-10.9824
▁tanzt	-10.9824
▁trepp	-10.9824
▁unangenehm	-10.9824
▁verein	-10.9824
▁verfüg	-10.9824
▁zwing	-10.9824
▁überquer	-10.9824
▁überwältigend	-10.9824
▁65	-10.9992
▁80ern	-10.9992
▁aufgeb	-10.9992
▁auswähl	-10.9992
▁außerirdisch	-10.9992
▁cambridg	-10.9992
▁derzeitig	-10.9992
▁distanz	-10.9992
▁empathi	-10.9992
▁erziehung	-10.9992
▁experimentell	-10.9992
▁feedback	-10.9992
▁frühling	-10.9992
▁gefangen	-10.9992
▁gelähmt	-10.9992
▁gest	-10.9992
▁haltung	-10.9992
▁hierfür	-10.9992
▁infektion	-10.9992
▁jahrelang	-10.9992
▁kohlendioxid	-10.9992
▁lebensraum	-10.9992
▁lärm	-10.9992
▁mittagess	-10.9992
▁mittelpunkt	-10.9992
▁mr.	-10.9992
▁neurowissenschaft	-10.9992
▁nördlich	-10.9992
▁olympisch	-10.9992
▁plätz	-10.9992
▁rad	-10.9992
▁reichweit	-10.9992
▁reif	-10.9992
▁repräsentier	-10.9992
▁schenk	-10.9992
▁schloss	-10.9992
▁umsetz	-10.9992
▁vermög	-10.9992
▁versorgt	-10.9992
▁verzweiflung	-10.9992
▁vielzahl	-10.9992
▁widerspruch	-10.9992
▁zwölf	-10.9992
▁zücht	-10.9992
▁1.	-11.0163
▁32	-11.0163
▁aktivier	-11.0163
▁analysiert	-11.0163
▁anpassung	-11.0163
▁antrieb	-11.0163
▁balanc	-11.0163
▁beantwortet	-11.0163
▁behält	-11.0163
▁brüd	-11.0163
▁dezemb	-11.0163
▁durcheinand	-11.0163
▁e-mails	-11.0163
▁effektiver	-11.0163
▁effizienter	-11.0163
▁einsam	-11.0163
▁einsicht	-11.0163
▁ermutig	-11.0163
▁flüssig	-11.0163
▁heimat	-11.0163
▁jag	-11.0163
▁king	-11.0163
▁kleid	-11.0163
▁königin	-11.0163
▁liest	-11.0163
▁mikroskop	-11.0163
▁misst	-11.0163
▁mutation	-11.0163
▁neugi	-11.0163
▁packt	-11.0163
▁passiv	-11.0163
▁poesi	-11.0163
▁prüf	-11.0163
▁pump	-11.0163
▁reform	-11.0163
▁scharf	-11.0163
▁schuldig	-11.0163
▁schwerkraft	-11.0163
▁spürt	-11.0163
▁stattfindet	-11.0163
▁stärkst	-11.0163
▁tön	-11.0163
▁unfäll	-11.0163
▁vergewaltigt	-11.0163
▁verhält	-11.0163
▁vielmals	-11.0163
▁voran	-11.0163
▁übergang	-11.0163
▁ablauf	-11.0337
▁abstand	-11.0337
▁ankam	-11.0337
▁auffassung	-11.0337
▁auftauch	-11.0337
▁babi	-11.0337
▁bräucht	-11.0337
▁emission	-11.0337
▁eröffn	-11.0337
▁etc.	-11.0337
▁fahrt	-11.0337
▁funktionierend	-11.0337
▁führungskräft	-11.0337
▁gerecht	-11.0337
▁geschmack	-11.0337
▁gewohnt	-11.0337
▁hausaufgab	-11.0337
▁hilfsmittel	-11.0337
▁häufigst	-11.0337
▁jim	-11.0337
▁kehrt	-11.0337
▁mist	-11.0337
▁mithilf	-11.0337
▁nirgendwo	-11.0337
▁original	-11.0337
▁partnerschaft	-11.0337
▁pill	-11.0337
▁produktivität	-11.0337
▁präsentiert	-11.0337
▁präzis	-11.0337
▁pyramid	-11.0337
▁schild	-11.0337
▁sicherzustell	-11.0337
▁speich	-11.0337
▁strahlung	-11.0337
▁unheimlich	-11.0337
▁uralt	-11.0337
▁urban	-11.0337
▁verboten	-11.0337
▁verbunden	-11.0337
▁vergrößern	-11.0337
▁vortrags	-11.0337
▁yeah	-11.0337
▁zeil	-11.0337
▁zweieinhalb	-11.0337
▁übersetzung	-11.0337
▁überwach	-11.0337
▁..	-11.0514
▁abschnitt	-11.0514
▁aktiviert	-11.0514
▁alltag	-11.0514
▁ausgezeichnet	-11.0514
▁beeindruckt	-11.0514
▁behauptet	-11.0514
▁behörd	-11.0514
▁bindung	-11.0514
▁blogs	-11.0514
▁bob	-11.0514
▁bot	-11.0514
▁bush	-11.0514
▁darzustell	-11.0514
▁eingestellt	-11.0514
▁elektrod	-11.0514
▁empfang	-11.0514
▁engagement	-11.0514
▁flüss	-11.0514
▁gor	-11.0514
▁großvat	-11.0514
▁herkunft	-11.0514
▁hut	-11.0514
▁hügel	-11.0514
▁investor	-11.0514
▁jack	-11.0514
▁kondom	-11.0514
▁küh	-11.0514
▁ladung	-11.0514
▁oxytocin	-11.0514
▁party	-11.0514
▁probiert	-11.0514
▁programmiert	-11.0514
▁reihenfolg	-11.0514
▁sonnensyst	-11.0514
▁spani	-11.0514
▁tausch	-11.0514
▁transportiert	-11.0514
▁türkei	-11.0514
▁u-boot	-11.0514
▁unglücklicherweis	-11.0514
▁verwirrt	-11.0514
▁weint	-11.0514
▁wörtlich	-11.0514
▁zutat	-11.0514
▁amazonas	-11.0694
▁angeboten	-11.0694
▁angewandt	-11.0694
▁anwält	-11.0694
▁apparat	-11.0694
▁auflösung	-11.0694
▁barrier	-11.0694
▁basier	-11.0694
▁beizubring	-11.0694
▁bewältig	-11.0694
▁chaotisch	-11.0694
▁drahtlos	-11.0694
▁drauss	-11.0694
▁durchlauf	-11.0694
▁fein	-11.0694
▁flagg	-11.0694
▁fokussier	-11.0694
▁gedreht	-11.0694
▁geni	-11.0694
▁gerüst	-11.0694
▁gewachsen	-11.0694
▁hirn	-11.0694
▁hofft	-11.0694
▁jon	-11.0694
▁kamel	-11.0694
▁malt	-11.0694
▁norweg	-11.0694
▁prüfung	-11.0694
▁riff	-11.0694
▁rio	-11.0694
▁s.	-11.0694
▁schlägt	-11.0694
▁schokolad	-11.0694
▁sieh	-11.0694
▁sort	-11.0694
▁star	-11.0694
▁stock	-11.0694
▁supermarkt	-11.0694
▁taub	-11.0694
▁treibstoff	-11.0694
▁trupp	-11.0694
▁unsicherheit	-11.0694
▁urknall	-11.0694
▁versetzt	-11.0694
▁vorkomm	-11.0694
▁wahrhaftig	-11.0694
▁widerstand	-11.0694
▁wiegt	-11.0694
▁zahlt	-11.0694
▁700	-11.0877
▁85	-11.0877
▁algorithmus	-11.0877
▁anfäng	-11.0877
▁ankommt	-11.0877
▁aufeinand	-11.0877
▁aufgezeichnet	-11.0877
▁aufsteh	-11.0877
▁ausgestorben	-11.0877
▁ballon	-11.0877
▁benannt	-11.0877
▁bet	-11.0877
▁bürgermeist	-11.0877
▁daneb	-11.0877
▁daum	-11.0877
▁entschuldig	-11.0877
▁ermutigt	-11.0877
▁experimentier	-11.0877
▁flughaf	-11.0877
▁fortgeschritten	-11.0877
▁gefolgt	-11.0877
▁geheimniss	-11.0877
▁genetik	-11.0877
▁geprägt	-11.0877
▁gesucht	-11.0877
▁gewohnheit	-11.0877
▁heim	-11.0877
▁herangehensweis	-11.0877
▁hierbei	-11.0877
▁horizont	-11.0877
▁hungrig	-11.0877
▁ignoranz	-11.0877
▁individuum	-11.0877
▁interpretation	-11.0877
▁kläng	-11.0877
▁landwirtschaftlich	-11.0877
▁laptops	-11.0877
▁manhattan	-11.0877
▁markiert	-11.0877
▁nest	-11.0877
▁notwendigkeit	-11.0877
▁parasit	-11.0877
▁primitiv	-11.0877
▁rb	-11.0877
▁rüb	-11.0877
▁skelett	-11.0877
▁spektakulär	-11.0877
▁stabilität	-11.0877
▁steigern	-11.0877
▁strategisch	-11.0877
▁transportier	-11.0877
▁töcht	-11.0877
▁umfassend	-11.0877
▁verständlich	-11.0877
▁verstärkt	-11.0877
▁wahnsinnig	-11.0877
▁wohlhabend	-11.0877
▁zutiefst	-11.0877
▁zwanzig	-11.0877
▁17.	-11.1064
▁2.000	-11.1064
▁2011	-11.1064
▁800	-11.1064
▁aufzunehm	-11.1064
▁ausgestattet	-11.1064
▁ausländisch	-11.1064
▁beteilig	-11.1064
▁bezieht	-11.1064
▁bind	-11.1064
▁bizarr	-11.1064
▁christ	-11.1064
▁denkst	-11.1064
▁detailliert	-11.1064
▁drinn	-11.1064
▁durchmess	-11.1064
▁eingeschloss	-11.1064
▁einnahm	-11.1064
▁erscheinung	-11.1064
▁expedition	-11.1064
▁galeri	-11.1064
▁garantiert	-11.1064
▁geformt	-11.1064
▁geschlossen	-11.1064
▁glamourös	-11.1064
▁herein	-11.1064
▁howard	-11.1064
▁jud	-11.1064
▁kant	-11.1064
▁keinerlei	-11.1064
▁klimawandels	-11.1064
▁konsumier	-11.1064
▁kontrovers	-11.1064
▁kuch	-11.1064
▁legal	-11.1064
▁lehrerin	-11.1064
▁leidenschaftlich	-11.1064
▁linear	-11.1064
▁mai	-11.1064
▁nackt	-11.1064
▁natürlicher	-11.1064
▁pfeil	-11.1064
▁primat	-11.1064
▁privileg	-11.1064
▁regal	-11.1064
▁restaurants	-11.1064
▁rhythmus	-11.1064
▁richtlini	-11.1064
▁robust	-11.1064
▁sang	-11.1064
▁solarenergi	-11.1064
▁steigend	-11.1064
▁streng	-11.1064
▁synthetisch	-11.1064
▁teilnahm	-11.1064
▁thunfisch	-11.1064
▁transport	-11.1064
▁treibhausgas	-11.1064
▁treu	-11.1064
▁veranstaltung	-11.1064
▁verborgen	-11.1064
▁verfügt	-11.1064
▁vergrößert	-11.1064
▁verpflichtung	-11.1064
▁winkel	-11.1064
▁wochenend	-11.1064
▁ähnelt	-11.1064
▁abschließ	-11.1255
▁anfangs	-11.1255
▁anzunehm	-11.1255
▁ausprobier	-11.1255
▁bar	-11.1255
▁bislang	-11.1255
▁demonstration	-11.1255
▁dokumentiert	-11.1255
▁einnehm	-11.1255
▁elektronik	-11.1255
▁entropi	-11.1255
▁euro	-11.1255
▁festhalt	-11.1255
▁foundation	-11.1255
▁garag	-11.1255
▁gelegentlich	-11.1255
▁gelingt	-11.1255
▁gemein	-11.1255
▁gemeint	-11.1255
▁gletsch	-11.1255
▁identifiziert	-11.1255
▁indiens	-11.1255
▁inspirierend	-11.1255
▁irgend	-11.1255
▁jh	-11.1255
▁klappt	-11.1255
▁klavi	-11.1255
▁kosmisch	-11.1255
▁laufend	-11.1255
▁lebensform	-11.1255
▁litt	-11.1255
▁messung	-11.1255
▁ordentlich	-11.1255
▁seif	-11.1255
▁slums	-11.1255
▁straf	-11.1255
▁verb	-11.1255
▁verpflichtet	-11.1255
▁vät	-11.1255
▁zud	-11.1255
▁zurzeit	-11.1255
▁1,5	-11.1449
▁aktivist	-11.1449
▁alzheim	-11.1449
▁angeblich	-11.1449
▁anhäng	-11.1449
▁anzuwend	-11.1449
▁archiv	-11.1449
▁aufhört	-11.1449
▁aussterb	-11.1449
▁behauptung	-11.1449
▁bell	-11.1449
▁beschädigt	-11.1449
▁bildungssystem	-11.1449
▁derjenig	-11.1449
▁ed	-11.1449
▁einwohn	-11.1449
▁extra	-11.1449
▁fundament	-11.1449
▁getrieb	-11.1449
▁grausam	-11.1449
▁grob	-11.1449
▁kandidat	-11.1449
▁konsum	-11.1449
▁koran	-11.1449
▁nelson	-11.1449
▁rasch	-11.1449
▁realisiert	-11.1449
▁riech	-11.1449
▁rückwärts	-11.1449
▁saturn	-11.1449
▁scann	-11.1449
▁schwierigst	-11.1449
▁schönst	-11.1449
▁song	-11.1449
▁spanisch	-11.1449
▁taliban	-11.1449
▁tiefst	-11.1449
▁tragisch	-11.1449
▁unschuldig	-11.1449
▁verleg	-11.1449
▁vorstellt	-11.1449
▁wasch	-11.1449
▁wichtigkeit	-11.1449
▁wid	-11.1449
▁wohnt	-11.1449
▁zeh	-11.1449
▁zueinand	-11.1449
▁zustimm	-11.1449
▁26	-11.1647
▁anonym	-11.1647
▁architektonisch	-11.1647
▁aufruf	-11.1647
▁bedauern	-11.1647
▁beruflich	-11.1647
▁beruht	-11.1647
▁betrag	-11.1647
▁bewertung	-11.1647
▁bewiesen	-11.1647
▁chip	-11.1647
▁dankeschön	-11.1647
▁dreieck	-11.1647
▁dörf	-11.1647
▁einerseits	-11.1647
▁eingeschränkt	-11.1647
▁einladung	-11.1647
▁erlaubnis	-11.1647
▁fledermäus	-11.1647
▁fließend	-11.1647
▁gelegt	-11.1647
▁getrag	-11.1647
▁hingeg	-11.1647
▁integrier	-11.1647
▁interpretier	-11.1647
▁karikatur	-11.1647
▁konstruktion	-11.1647
▁kortex	-11.1647
▁kreislauf	-11.1647
▁kürzer	-11.1647
▁mitgebracht	-11.1647
▁motivier	-11.1647
▁oberst	-11.1647
▁planung	-11.1647
▁rannt	-11.1647
▁schal	-11.1647
▁scheiß	-11.1647
▁schlechtest	-11.1647
▁selektion	-11.1647
▁silicon	-11.1647
▁simpl	-11.1647
▁smith	-11.1647
▁stattfand	-11.1647
▁staub	-11.1647
▁steuert	-11.1647
▁tätig	-11.1647
▁unklar	-11.1647
▁urteil	-11.1647
▁verarbeitet	-11.1647
▁versetz	-11.1647
▁watt	-11.1647
▁wörterbuch	-11.1647
▁zelt	-11.1647
▁äthiopi	-11.1647
▁18.	-11.1849
▁1950	-11.1849
▁2002	-11.1849
▁2050	-11.1849
▁abhängt	-11.1849
▁anbau	-11.1849
▁anderswo	-11.1849
▁anlieg	-11.1849
▁bakterium	-11.1849
▁brian	-11.1849
▁bzw.	-11.1849
▁delphin	-11.1849
▁einführ	-11.1849
▁engagiert	-11.1849
▁fasern	-11.1849
▁flut	-11.1849
▁ford	-11.1849
▁gemeinschaftlich	-11.1849
▁gestohlen	-11.1849
▁großeltern	-11.1849
▁hall	-11.1849
▁hebt	-11.1849
▁herd	-11.1849
▁interviews	-11.1849
▁irr	-11.1849
▁italienisch	-11.1849
▁jesus	-11.1849
▁konzentration	-11.1849
▁krankenhäus	-11.1849
▁liberal	-11.1849
▁lit	-11.1849
▁media	-11.1849
▁obdachlos	-11.1849
▁panik	-11.1849
▁peinlich	-11.1849
▁persönlicher	-11.1849
▁pock	-11.1849
▁pol	-11.1849
▁qu	-11.1849
▁rass	-11.1849
▁robotern	-11.1849
▁schieb	-11.1849
▁schädel	-11.1849
▁schütteln	-11.1849
▁spritz	-11.1849
▁starr	-11.1849
▁stat	-11.1849
▁surf	-11.1849
▁tour	-11.1849
▁verhandlung	-11.1849
▁vernunft	-11.1849
▁vorherig	-11.1849
▁wandern	-11.1849
▁wasserstoff	-11.1849
▁woanders	-11.1849
▁zentimet	-11.1849
▁zon	-11.1849
▁zweig	-11.1849
▁1980	-11.2055
▁2012	-11.2055
▁3.000	-11.2055
▁70ern	-11.2055
▁alexand	-11.2055
▁alkohol	-11.2055
▁andauernd	-11.2055
▁anhör	-11.2055
▁ansah	-11.2055
▁applaus	-11.2055
▁arbeitend	-11.2055
▁ausland	-11.2055
▁bauch	-11.2055
▁betreff	-11.2055
▁betrüg	-11.2055
▁beängstigend	-11.2055
▁bohr	-11.2055
▁bricht	-11.2055
▁diät	-11.2055
▁durchbruch	-11.2055
▁durchführt	-11.2055
▁elegant	-11.2055
▁eric	-11.2055
▁festzustell	-11.2055
▁front	-11.2055
▁fu	-11.2055
▁füllt	-11.2055
▁gebund	-11.2055
▁gerichtet	-11.2055
▁glamour	-11.2055
▁großzügig	-11.2055
▁hob	-11.2055
▁installation	-11.2055
▁korea	-11.2055
▁königreich	-11.2055
▁led	-11.2055
▁mt	-11.2055
▁nadel	-11.2055
▁oftmals	-11.2055
▁on	-11.2055
▁pazifik	-11.2055
▁rausch	-11.2055
▁schlicht	-11.2055
▁schriftstell	-11.2055
▁siehst	-11.2055
▁spiels	-11.2055
▁sprung	-11.2055
▁standards	-11.2055
▁stehl	-11.2055
▁stärker	-11.2055
▁to	-11.2055
▁trinkwass	-11.2055
▁umgewandelt	-11.2055
▁un	-11.2055
▁verbrannt	-11.2055
▁verdoppeln	-11.2055
▁verpasst	-11.2055
▁verschieb	-11.2055
▁verseh	-11.2055
▁vertrag	-11.2055
▁vorgehensweis	-11.2055
▁völk	-11.2055
▁y	-11.2055
▁z	-11.2055
▁33	-11.2266
▁60ern	-11.2266
▁agier	-11.2266
▁angesicht	-11.2266
▁app	-11.2266
▁ausgelöst	-11.2266
▁ausprobiert	-11.2266
▁beherrsch	-11.2266
▁betrug	-11.2266
▁biosphär	-11.2266
▁brown	-11.2266
▁chronisch	-11.2266
▁daraufhin	-11.2266
▁dschihad	-11.2266
▁durchaus	-11.2266
▁einbring	-11.2266
▁eineinhalb	-11.2266
▁erstmals	-11.2266
▁erwischt	-11.2266
▁ethik	-11.2266
▁fettleibigkeit	-11.2266
▁formel	-11.2266
▁gefühlt	-11.2266
▁gehst	-11.2266
▁größtenteils	-11.2266
▁hals	-11.2266
▁hektar	-11.2266
▁jederzeit	-11.2266
▁jedesmal	-11.2266
▁kalori	-11.2266
▁kleb	-11.2266
▁knot	-11.2266
▁konversation	-11.2266
▁krebszell	-11.2266
▁kräh	-11.2266
▁lamp	-11.2266
▁leis	-11.2266
▁lincoln	-11.2266
▁mandela	-11.2266
▁marin	-11.2266
▁mary	-11.2266
▁matrix	-11.2266
▁meeting	-11.2266
▁märz	-11.2266
▁möglichst	-11.2266
▁oel	-11.2266
▁pfad	-11.2266
▁proband	-11.2266
▁projekts	-11.2266
▁r	-11.2266
▁rechnung	-11.2266
▁regim	-11.2266
▁rettung	-11.2266
▁sanft	-11.2266
▁sw	-11.2266
▁söhn	-11.2266
▁süchtig	-11.2266
▁teppich	-11.2266
▁tiefgreifend	-11.2266
▁transformation	-11.2266
▁umh	-11.2266
▁urlaub	-11.2266
▁verschiedenst	-11.2266
▁vertreten	-11.2266
▁wacht	-11.2266
▁währung	-11.2266
▁zugrund	-11.2266
▁zuständ	-11.2266
▁ärger	-11.2266
▁1970	-11.2481
▁2.	-11.2481
▁28	-11.2481
▁90ern	-11.2481
▁abschließend	-11.2481
▁anfällig	-11.2481
▁anschließend	-11.2481
▁antarktis	-11.2481
▁antibiotika	-11.2481
▁artenvielfalt	-11.2481
▁atomenergi	-11.2481
▁aufgestellt	-11.2481
▁aufhalt	-11.2481
▁august	-11.2481
▁bay	-11.2481
▁berlin	-11.2481
▁beschrieb	-11.2481
▁beseitig	-11.2481
▁brilliant	-11.2481
▁direktor	-11.2481
▁entsetzlich	-11.2481
▁erschafft	-11.2481
▁eventuell	-11.2481
▁filt	-11.2481
▁geflog	-11.2481
▁generier	-11.2481
▁gespeichert	-11.2481
▁gesunken	-11.2481
▁heilung	-11.2481
▁herkomm	-11.2481
▁herkömmlich	-11.2481
▁hing	-11.2481
▁immerhin	-11.2481
▁intern	-11.2481
▁isst	-11.2481
▁körpern	-11.2481
▁matt	-11.2481
▁melodi	-11.2481
▁minus	-11.2481
▁möchtest	-11.2481
▁orchest	-11.2481
▁riecht	-11.2481
▁riss	-11.2481
▁schmutzig	-11.2481
▁schock	-11.2481
▁second	-11.2481
▁shanghai	-11.2481
▁sink	-11.2481
▁spezialisiert	-11.2481
▁standard	-11.2481
▁tragbar	-11.2481
▁u-bahn	-11.2481
▁umgesetzt	-11.2481
▁unbewusst	-11.2481
▁untereinand	-11.2481
▁van	-11.2481
▁variabl	-11.2481
▁vaters	-11.2481
▁verkündet	-11.2481
▁verletz	-11.2481
▁verletzlichkeit	-11.2481
▁vorlesung	-11.2481
▁wahrscheinlicher	-11.2481
▁warst	-11.2481
▁weitaus	-11.2481
▁zieg	-11.2481
▁zung	-11.2481
▁zusammenfass	-11.2481
▁zuzuhör	-11.2481
▁zwang	-11.2481
▁übernomm	-11.2481
▁2,5	-11.27
▁allgegenwärtig	-11.27
▁angewendet	-11.27
▁ausgedrückt	-11.27
▁auszuprobier	-11.27
▁autistisch	-11.27
▁autobahn	-11.27
▁balk	-11.27
▁bemüh	-11.27
▁berührung	-11.27
▁chil	-11.27
▁county	-11.27
▁diagnostiziert	-11.27
▁dörfern	-11.27
▁earth	-11.27
▁eigentum	-11.27
▁einfall	-11.27
▁einführung	-11.27
▁elend	-11.27
▁enkel	-11.27
▁fördert	-11.27
▁gelauf	-11.27
▁geometri	-11.27
▁geringst	-11.27
▁gestiegen	-11.27
▁grösst	-11.27
▁heimatstadt	-11.27
▁intervention	-11.27
▁johnson	-11.27
▁kreativer	-11.27
▁kühl	-11.27
▁markier	-11.27
▁methan	-11.27
▁mitleid	-11.27
▁moor	-11.27
▁mächtigst	-11.27
▁nachmittag	-11.27
▁neigung	-11.27
▁objektiv	-11.27
▁platziert	-11.27
▁profil	-11.27
▁profit	-11.27
▁protozell	-11.27
▁reaktor	-11.27
▁realistisch	-11.27
▁republikan	-11.27
▁rout	-11.27
▁rückseit	-11.27
▁schizophreni	-11.27
▁schützt	-11.27
▁sieg	-11.27
▁sklaverei	-11.27
▁vergleicht	-11.27
▁verleih	-11.27
▁verläuft	-11.27
▁verwalt	-11.27
▁verwirklich	-11.27
▁veröffentlichung	-11.27
▁vorles	-11.27
▁vorurteil	-11.27
▁völkermord	-11.27
▁wahrgenommen	-11.27
▁wörtern	-11.27
▁zuseh	-11.27
▁züg	-11.27
▁ängst	-11.27
▁1998	-11.2925
▁30.000	-11.2925
▁angezogen	-11.2925
▁astronom	-11.2925
▁aufstell	-11.2925
▁befreit	-11.2925
▁bemühung	-11.2925
▁berücksichtigt	-11.2925
▁blitz	-11.2925
▁brit	-11.2925
▁charli	-11.2925
▁chinas	-11.2925
▁demokrat	-11.2925
▁drastisch	-11.2925
▁durchgeh	-11.2925
▁empfehl	-11.2925
▁errichtet	-11.2925
▁erschwinglich	-11.2925
▁explodiert	-11.2925
▁fbi	-11.2925
▁frustriert	-11.2925
▁gefängniss	-11.2925
▁genoss	-11.2925
▁gescheitert	-11.2925
▁gib	-11.2925
▁grundstück	-11.2925
▁hans	-11.2925
▁henry	-11.2925
▁hollywood	-11.2925
▁ironi	-11.2925
▁k	-11.2925
▁kontinuierlich	-11.2925
▁konventionell	-11.2925
▁könntest	-11.2925
▁leinwand	-11.2925
▁long	-11.2925
▁mitteln	-11.2925
▁motto	-11.2925
▁mythos	-11.2925
▁müd	-11.2925
▁pandemi	-11.2925
▁premierminist	-11.2925
▁quadratmet	-11.2925
▁raumschiff	-11.2925
▁rollstuhl	-11.2925
▁ruft	-11.2925
▁rum	-11.2925
▁schockiert	-11.2925
▁schätzt	-11.2925
▁sinkt	-11.2925
▁titan	-11.2925
▁tony	-11.2925
▁verhaltensweis	-11.2925
▁vermischt	-11.2925
▁vertrieb	-11.2925
▁wenigst	-11.2925
▁willkürlich	-11.2925
▁wirtschaftswachstum	-11.2925
▁wonach	-11.2925
▁worin	-11.2925
▁zivil	-11.2925
▁zusammengefasst	-11.2925
▁überdenk	-11.2925
▁überholt	-11.2925
▁üblicherweis	-11.2925
▁3d	-11.3155
▁absichtlich	-11.3155
▁alg	-11.3155
▁anwesenheit	-11.3155
▁anzufang	-11.3155
▁behindert	-11.3155
▁beleuchtung	-11.3155
▁benjamin	-11.3155
▁bewusstseins	-11.3155
▁blickt	-11.3155
▁bog	-11.3155
▁business	-11.3155
▁comics	-11.3155
▁detroit	-11.3155
▁eintret	-11.3155
▁empfindlich	-11.3155
▁erheb	-11.3155
▁erstmal	-11.3155
▁erweiterung	-11.3155
▁funk	-11.3155
▁gedruckt	-11.3155
▁geglaubt	-11.3155
▁gegn	-11.3155
▁gestoß	-11.3155
▁gewalttätig	-11.3155
▁gezeichnet	-11.3155
▁gezielt	-11.3155
▁gift	-11.3155
▁graph	-11.3155
▁greifbar	-11.3155
▁griechisch	-11.3155
▁guck	-11.3155
▁herausgestellt	-11.3155
▁herbst	-11.3155
▁homosexuell	-11.3155
▁häusern	-11.3155
▁hüll	-11.3155
▁immunsyst	-11.3155
▁kindersitz	-11.3155
▁klatsch	-11.3155
▁kunststoff	-11.3155
▁künst	-11.3155
▁leidet	-11.3155
▁lohnt	-11.3155
▁magnetisch	-11.3155
▁manipulier	-11.3155
▁mentor	-11.3155
▁mik	-11.3155
▁mod	-11.3155
▁opfern	-11.3155
▁ozeans	-11.3155
▁sahara	-11.3155
▁schöpf	-11.3155
▁skala	-11.3155
▁skizz	-11.3155
▁squar	-11.3155
▁sturm	-11.3155
▁symmetrisch	-11.3155
▁tafel	-11.3155
▁tal	-11.3155
▁trennt	-11.3155
▁tänz	-11.3155
▁unabhängigkeit	-11.3155
▁unvorstellbar	-11.3155
▁verbündet	-11.3155
▁verschaff	-11.3155
▁vorgäng	-11.3155
▁wohnzimm	-11.3155
▁übernahm	-11.3155
▁übers	-11.3155
▁1999	-11.339
▁2030	-11.339
▁55	-11.339
▁abweichung	-11.339
▁air	-11.339
▁anerkannt	-11.339
▁angebracht	-11.339
▁angreif	-11.339
▁ansprech	-11.339
▁anwalt	-11.339
▁anwesend	-11.339
▁argumentier	-11.339
▁atlantik	-11.339
▁aufweis	-11.339
▁authentisch	-11.339
▁bahn	-11.339
▁befasst	-11.339
▁begeb	-11.339
▁belegt	-11.339
▁berücksichtig	-11.339
▁beschäftigung	-11.339
▁bestätig	-11.339
▁betrachtung	-11.339
▁beunruhigend	-11.339
▁bevorzug	-11.339
▁carolina	-11.339
▁depressiv	-11.339
▁dunkler	-11.339
▁eigenartig	-11.339
▁engagier	-11.339
▁entscheidet	-11.339
▁erschreckend	-11.339
▁ertrag	-11.339
▁gereist	-11.339
▁geruf	-11.339
▁gesteuert	-11.339
▁getreid	-11.339
▁halluzination	-11.339
▁hierarchi	-11.339
▁hütt	-11.339
▁immens	-11.339
▁indonesi	-11.339
▁intelligenter	-11.339
▁jahreszeit	-11.339
▁kett	-11.339
▁konkurrenz	-11.339
▁konzert	-11.339
▁künstlern	-11.339
▁lg	-11.339
▁lösch	-11.339
▁magnet	-11.339
▁mitmach	-11.339
▁philosophisch	-11.339
▁pizza	-11.339
▁rent	-11.339
▁rick	-11.339
▁roh	-11.339
▁rov	-11.339
▁schoss	-11.339
▁servic	-11.339
▁singapur	-11.339
▁sond	-11.339
▁sonderbar	-11.339
▁sowieso	-11.339
▁sowjetunion	-11.339
▁statisch	-11.339
▁stimmung	-11.339
▁tastatur	-11.339
▁teils	-11.339
▁thes	-11.339
▁trocken	-11.339
▁univers	-11.339
▁verhaftet	-11.339
▁verringert	-11.339
▁verschmutzung	-11.339
▁wechselt	-11.339
▁weiterentwickelt	-11.339
▁wärmer	-11.339
▁zitier	-11.339
▁überprüft	-11.339
▁übersehen	-11.339
▁abgelegen	-11.3631
▁agenda	-11.3631
▁angegriff	-11.3631
▁angelegt	-11.3631
▁ansteckend	-11.3631
▁aristotel	-11.3631
▁befestigt	-11.3631
▁begeh	-11.3631
▁begeisterung	-11.3631
▁begrab	-11.3631
▁betroffen	-11.3631
▁beurteil	-11.3631
▁brill	-11.3631
▁chromosom	-11.3631
▁computers	-11.3631
▁data	-11.3631
▁dauernd	-11.3631
▁demonstrier	-11.3631
▁dokumentier	-11.3631
▁einsetzt	-11.3631
▁endgültig	-11.3631
▁endlos	-11.3631
▁entkommen	-11.3631
▁entwicklungshilf	-11.3631
▁erlern	-11.3631
▁erschaffung	-11.3631
▁fasst	-11.3631
▁floss	-11.3631
▁forschern	-11.3631
▁fröhlich	-11.3631
▁frücht	-11.3631
▁grand	-11.3631
▁göttlich	-11.3631
▁hardwar	-11.3631
▁herzkrankheit	-11.3631
▁idiot	-11.3631
▁kredit	-11.3631
▁kält	-11.3631
▁lebensstil	-11.3631
▁leistet	-11.3631
▁metaphern	-11.3631
▁minimal	-11.3631
▁missbrauch	-11.3631
▁mitfühlend	-11.3631
▁mysteriös	-11.3631
▁münz	-11.3631
▁nachdacht	-11.3631
▁nebeneinand	-11.3631
▁nebenwirkung	-11.3631
▁neurologisch	-11.3631
▁nier	-11.3631
▁novemb	-11.3631
▁orang	-11.3631
▁parks	-11.3631
▁platzier	-11.3631
▁rast	-11.3631
▁ray	-11.3631
▁rezession	-11.3631
▁rosa	-11.3631
▁saub	-11.3631
▁schmeckt	-11.3631
▁sir	-11.3631
▁sklav	-11.3631
▁smartphon	-11.3631
▁standort	-11.3631
▁stetig	-11.3631
▁stockwerk	-11.3631
▁streif	-11.3631
▁stört	-11.3631
▁tell	-11.3631
▁tendier	-11.3631
▁tig	-11.3631
▁tint	-11.3631
▁tsunami	-11.3631
▁umfang	-11.3631
▁umkreis	-11.3631
▁umwandeln	-11.3631
▁vorkommt	-11.3631
▁vornehm	-11.3631
▁woraus	-11.3631
▁zeitspann	-11.3631
▁zugriff	-11.3631
▁zuständig	-11.3631
▁ähnlichkeit	-11.3631
▁überlebend	-11.3631
▁überzeugend	-11.3631
▁200.000	-11.3878
▁48	-11.3878
▁aggressiv	-11.3878
▁albern	-11.3878
▁amy	-11.3878
▁anfühlt	-11.3878
▁ansammlung	-11.3878
▁atheist	-11.3878
▁bearbeit	-11.3878
▁bewertet	-11.3878
▁bronx	-11.3878
▁brutal	-11.3878
▁datenmeng	-11.3878
▁diplomat	-11.3878
▁dürft	-11.3878
▁elf	-11.3878
▁elternteil	-11.3878
▁erfüllung	-11.3878
▁ergab	-11.3878
▁errungenschaft	-11.3878
▁erzielt	-11.3878
▁finanzierung	-11.3878
▁friedlich	-11.3878
▁gefroren	-11.3878
▁gemeinsamkeit	-11.3878
▁geographic	-11.3878
▁geschätzt	-11.3878
▁glatt	-11.3878
▁gps	-11.3878
▁gött	-11.3878
▁hasst	-11.3878
▁haustier	-11.3878
▁hemd	-11.3878
▁kilometern	-11.3878
▁klettert	-11.3878
▁kooperier	-11.3878
▁kostengünstig	-11.3878
▁lebensunterhalt	-11.3878
▁math	-11.3878
▁mord	-11.3878
▁nervensyst	-11.3878
▁newton	-11.3878
▁north	-11.3878
▁notiz	-11.3878
▁optimal	-11.3878
▁orbit	-11.3878
▁pur	-11.3878
▁respektier	-11.3878
▁räumlich	-11.3878
▁schachtel	-11.3878
▁schmal	-11.3878
▁schwul	-11.3878
▁simulier	-11.3878
▁spart	-11.3878
▁sprang	-11.3878
▁steph	-11.3878
▁tor	-11.3878
▁umsonst	-11.3878
▁versicherung	-11.3878
▁verteidig	-11.3878
▁wechsel	-11.3878
▁william	-11.3878
▁zerbrechlich	-11.3878
▁zuallererst	-11.3878
▁überfluss	-11.3878
▁2020	-11.4131
▁42	-11.4131
▁alters	-11.4131
▁angeschlossen	-11.4131
▁anleg	-11.4131
▁anspruch	-11.4131
▁antreibt	-11.4131
▁auslöst	-11.4131
▁aussuch	-11.4131
▁auszuseh	-11.4131
▁beck	-11.4131
▁begegnung	-11.4131
▁belohnt	-11.4131
▁bergsteig	-11.4131
▁bewegend	-11.4131
▁bewerb	-11.4131
▁bäll	-11.4131
▁cartoons	-11.4131
▁connectom	-11.4131
▁dau	-11.4131
▁denkens	-11.4131
▁detektor	-11.4131
▁dos	-11.4131
▁dummydummy	-11.4131
▁erholt	-11.4131
▁erwachs	-11.4131
▁folgendermaß	-11.4131
▁fund	-11.4131
▁gefiel	-11.4131
▁geschichtenerzähl	-11.4131
▁gravitation	-11.4131
▁greift	-11.4131
▁gründlich	-11.4131
▁harmoni	-11.4131
▁hervorbring	-11.4131
▁herzinfarkt	-11.4131
▁hiermit	-11.4131
▁hochzeit	-11.4131
▁horizontal	-11.4131
▁hüft	-11.4131
▁ideologi	-11.4131
▁innenstadt	-11.4131
▁interfac	-11.4131
▁kevin	-11.4131
▁kopiert	-11.4131
▁kram	-11.4131
▁krankenhäusern	-11.4131
▁lebensjahr	-11.4131
▁leonardo	-11.4131
▁mais	-11.4131
▁mikrofon	-11.4131
▁minderheit	-11.4131
▁mustern	-11.4131
▁nahrungsmittel	-11.4131
▁nähern	-11.4131
▁nähert	-11.4131
▁personal	-11.4131
▁phosphor	-11.4131
▁produzent	-11.4131
▁raums	-11.4131
▁reflektiert	-11.4131
▁report	-11.4131
▁republik	-11.4131
▁rom	-11.4131
▁röhr	-11.4131
▁salz	-11.4131
▁scherz	-11.4131
▁schlussfolgerung	-11.4131
▁schwamm	-11.4131
▁schwell	-11.4131
▁schädlich	-11.4131
▁scott	-11.4131
▁shakespear	-11.4131
▁spezialist	-11.4131
▁supp	-11.4131
▁trennung	-11.4131
▁vagina	-11.4131
▁vereinfacht	-11.4131
▁verpass	-11.4131
▁verschmelz	-11.4131
▁verschwendet	-11.4131
▁verstärk	-11.4131
▁verteidigung	-11.4131
▁visualisierung	-11.4131
▁wachstums	-11.4131
▁wildnis	-11.4131
▁wohingeg	-11.4131
▁zigarett	-11.4131
▁zurecht	-11.4131
▁zusammenbruch	-11.4131
▁zusammenhäng	-11.4131
▁ökologi	-11.4131
▁übertragung	-11.4131
▁37	-11.4391
▁abnehm	-11.4391
▁alic	-11.4391
▁angewies	-11.4391
▁aufklärung	-11.4391
▁ausgehend	-11.4391
▁ausgerichtet	-11.4391
▁aussicht	-11.4391
▁banan	-11.4391
▁beamt	-11.4391
▁befolg	-11.4391
▁beigetrag	-11.4391
▁beinhalt	-11.4391
▁bemüht	-11.4391
▁benzin	-11.4391
▁beschaff	-11.4391
▁bestäub	-11.4391
▁beunruhigt	-11.4391
▁bezirk	-11.4391
▁biomass	-11.4391
▁blockiert	-11.4391
▁blu	-11.4391
▁blöd	-11.4391
▁brooklyn	-11.4391
▁büros	-11.4391
▁chemotherapi	-11.4391
▁computerprogramm	-11.4391
▁demselb	-11.4391
▁dollars	-11.4391
▁dp	-11.4391
▁dräng	-11.4391
▁durchfall	-11.4391
▁einbau	-11.4391
▁ent	-11.4391
▁entlass	-11.4391
▁erlebniss	-11.4391
▁erschuf	-11.4391
▁etabliert	-11.4391
▁exemplar	-11.4391
▁farbig	-11.4391
▁fiktion	-11.4391
▁filmemach	-11.4391
▁flüchtig	-11.4391
▁fokussiert	-11.4391
▁frösch	-11.4391
▁galt	-11.4391
▁herrn	-11.4391
▁hinterfrag	-11.4391
▁hoffnungslos	-11.4391
▁humanitär	-11.4391
▁installiert	-11.4391
▁instinkt	-11.4391
▁institutionell	-11.4391
▁konstruier	-11.4391
▁lichts	-11.4391
▁liebling	-11.4391
▁management	-11.4391
▁montag	-11.4391
▁mumbai	-11.4391
▁müttern	-11.4391
▁naiv	-11.4391
▁niedlich	-11.4391
▁nordpol	-11.4391
▁oma	-11.4391
▁origami	-11.4391
▁parlament	-11.4391
▁pflicht	-11.4391
▁problematisch	-11.4391
▁robotik	-11.4391
▁rohr	-11.4391
▁rückmeldung	-11.4391
▁schaltet	-11.4391
▁seattl	-11.4391
▁solid	-11.4391
▁station	-11.4391
▁stoffwechsel	-11.4391
▁stundenlang	-11.4391
▁syri	-11.4391
▁säh	-11.4391
▁tabell	-11.4391
▁tansania	-11.4391
▁u.s.	-11.4391
▁unterdrückt	-11.4391
▁veraltet	-11.4391
▁verlässt	-11.4391
▁verstorben	-11.4391
▁vorbereitung	-11.4391
▁vulkan	-11.4391
▁watson	-11.4391
▁woll	-11.4391
▁zusammenzubring	-11.4391
▁östlich	-11.4391
▁überein	-11.4391
▁130	-11.4658
▁1900	-11.4658
▁1984	-11.4658
▁1995	-11.4658
▁40.000	-11.4658
▁abed	-11.4658
▁absurd	-11.4658
▁american	-11.4658
▁anderthalb	-11.4658
▁andrew	-11.4658
▁ankunft	-11.4658
▁annähernd	-11.4658
▁anzieh	-11.4658
▁anzug	-11.4658
▁april	-11.4658
▁arthur	-11.4658
▁asiatisch	-11.4658
▁atemberaubend	-11.4658
▁aufbaut	-11.4658
▁ausbreit	-11.4658
▁ausgeht	-11.4658
▁bad	-11.4658
▁bearbeitet	-11.4658
▁bedeck	-11.4658
▁bedient	-11.4658
▁belastung	-11.4658
▁bevorzugt	-11.4658
▁beweglich	-11.4658
▁blutgefäß	-11.4658
▁brasilianisch	-11.4658
▁bürgern	-11.4658
▁campus	-11.4658
▁celsius	-11.4658
▁daniel	-11.4658
▁dankbarkeit	-11.4658
▁derartig	-11.4658
▁dilemma	-11.4658
▁eigenständig	-11.4658
▁el	-11.4658
▁elit	-11.4658
▁empfäng	-11.4658
▁enttäuscht	-11.4658
▁erhol	-11.4658
▁essenz	-11.4658
▁fischerei	-11.4658
▁foi	-11.4658
▁fordern	-11.4658
▁freizeit	-11.4658
▁freut	-11.4658
▁frosch	-11.4658
▁gandhi	-11.4658
▁gattung	-11.4658
▁gebot	-11.4658
▁geleistet	-11.4658
▁gemalt	-11.4658
▁geradezu	-11.4658
▁gespannt	-11.4658
▁gewünscht	-11.4658
▁harry	-11.4658
▁hürd	-11.4658
▁informier	-11.4658
▁jedermann	-11.4658
▁jeweilig	-11.4658
▁kehr	-11.4658
▁klettern	-11.4658
▁kopenhagen	-11.4658
▁kraftvoll	-11.4658
▁kreuzung	-11.4658
▁leuchtet	-11.4658
▁lkw	-11.4658
▁manipuliert	-11.4658
▁meeresspiegel	-11.4658
▁musikstück	-11.4658
▁mück	-11.4658
▁nachkomm	-11.4658
▁nebel	-11.4658
▁neuseeland	-11.4658
▁o	-11.4658
▁ordn	-11.4658
▁populär	-11.4658
▁potenziell	-11.4658
▁primzahl	-11.4658
▁prognos	-11.4658
▁project	-11.4658
▁realisier	-11.4658
▁regulier	-11.4658
▁regulierung	-11.4658
▁rock	-11.4658
▁rückkehr	-11.4658
▁sarah	-11.4658
▁selbstmord	-11.4658
▁szenario	-11.4658
▁tiefer	-11.4658
▁transistor	-11.4658
▁trieb	-11.4658
▁umsetzung	-11.4658
▁ungeheur	-11.4658
▁union	-11.4658
▁unterdrück	-11.4658
▁vergeben	-11.4658
▁verloren	-11.4658
▁versichern	-11.4658
▁virginia	-11.4658
▁waschmaschin	-11.4658
▁weitgehend	-11.4658
▁womöglich	-11.4658
▁zeitlich	-11.4658
▁zufriedenheit	-11.4658
▁zusammengestellt	-11.4658
▁zusammenkomm	-11.4658
▁350	-11.4932
▁36	-11.4932
▁abspiel	-11.4932
▁allmählich	-11.4932
▁ansätz	-11.4932
▁antenn	-11.4932
▁anzupass	-11.4932
▁atlanta	-11.4932
▁aufgefall	-11.4932
▁aufregung	-11.4932
▁aufzugeb	-11.4932
▁ausbild	-11.4932
▁bewaffnet	-11.4932
▁blogg	-11.4932
▁blüt	-11.4932
▁brenn	-11.4932
▁cola	-11.4932
▁computerspiel	-11.4932
▁d.h.	-11.4932
▁dominiert	-11.4932
▁dusch	-11.4932
▁dürr	-11.4932
▁einlad	-11.4932
▁einmalig	-11.4932
▁erdgas	-11.4932
▁erfolgreichst	-11.4932
▁erzieh	-11.4932
▁everest	-11.4932
▁fertigkeit	-11.4932
▁feynman	-11.4932
▁fluoreszierend	-11.4932
▁formuliert	-11.4932
▁frustration	-11.4932
▁funktionsweis	-11.4932
▁geduld	-11.4932
▁gefilmt	-11.4932
▁gelandet	-11.4932
▁generiert	-11.4932
▁geschossen	-11.4932
▁griechenland	-11.4932
▁gänzlich	-11.4932
▁hang	-11.4932
▁instinktiv	-11.4932
▁jeff	-11.4932
▁jetzig	-11.4932
▁kanäl	-11.4932
▁kell	-11.4932
▁koenn	-11.4932
▁kurzfristig	-11.4932
▁künstlerin	-11.4932
▁kürz	-11.4932
▁l.a.	-11.4932
▁lab	-11.4932
▁landkart	-11.4932
▁landwirt	-11.4932
▁lego	-11.4932
▁lehnt	-11.4932
▁liegend	-11.4932
▁loswerd	-11.4932
▁maximal	-11.4932
▁meldet	-11.4932
▁news	-11.4932
▁palm	-11.4932
▁phänomenal	-11.4932
▁prothes	-11.4932
▁provinz	-11.4932
▁prozentsatz	-11.4932
▁pupp	-11.4932
▁ras	-11.4932
▁recherch	-11.4932
▁redn	-11.4932
▁regnet	-11.4932
▁revolutionär	-11.4932
▁rückgang	-11.4932
▁schläg	-11.4932
▁schnittstell	-11.4932
▁st.	-11.4932
▁stapel	-11.4932
▁symbolisch	-11.4932
▁teilzunehm	-11.4932
▁tierisch	-11.4932
▁tropisch	-11.4932
▁tugend	-11.4932
▁umbring	-11.4932
▁unrecht	-11.4932
▁unterbroch	-11.4932
▁unterschiedlicher	-11.4932
▁unzählig	-11.4932
▁verfassung	-11.4932
▁vergewaltigung	-11.4932
▁verknüpf	-11.4932
▁verletzlich	-11.4932
▁vermächtnis	-11.4932
▁vorlieb	-11.4932
▁vögeln	-11.4932
▁weitergeb	-11.4932
▁wies	-11.4932
▁zusammensetz	-11.4932
▁ästhetik	-11.4932
▁1994	-11.5214
▁3000	-11.5214
▁abbau	-11.5214
▁abfolg	-11.5214
▁abgeb	-11.5214
▁abhäng	-11.5214
▁abkomm	-11.5214
▁ag	-11.5214
▁amazon	-11.5214
▁angesproch	-11.5214
▁angiogenes	-11.5214
▁antik	-11.5214
▁aufgehört	-11.5214
▁ausred	-11.5214
▁ausüb	-11.5214
▁beachtlich	-11.5214
▁begründet	-11.5214
▁berkeley	-11.5214
▁beruhig	-11.5214
▁beschränkung	-11.5214
▁bestimmung	-11.5214
▁bestmöglich	-11.5214
▁beut	-11.5214
▁bruno	-11.5214
▁damalig	-11.5214
▁dopamin	-11.5214
▁einflussreich	-11.5214
▁einheimisch	-11.5214
▁einkauf	-11.5214
▁entwickl	-11.5214
▁f	-11.5214
▁favorit	-11.5214
▁g	-11.5214
▁gebild	-11.5214
▁geduldig	-11.5214
▁gelung	-11.5214
▁gemerkt	-11.5214
▁geschenkt	-11.5214
▁gewäss	-11.5214
▁grundschul	-11.5214
▁hervorruf	-11.5214
▁himmels	-11.5214
▁hinterh	-11.5214
▁ii	-11.5214
▁informell	-11.5214
▁ipod	-11.5214
▁irland	-11.5214
▁irrational	-11.5214
▁jan	-11.5214
▁joseph	-11.5214
▁jungfrau	-11.5214
▁klebt	-11.5214
▁käs	-11.5214
▁lagern	-11.5214
▁larry	-11.5214
▁libell	-11.5214
▁liebend	-11.5214
▁liebevoll	-11.5214
▁luth	-11.5214
▁luxus	-11.5214
▁mauern	-11.5214
▁mobilität	-11.5214
▁muskel	-11.5214
▁nachh	-11.5214
▁nachteil	-11.5214
▁naturwissenschaft	-11.5214
▁neuartig	-11.5214
▁neutral	-11.5214
▁nick	-11.5214
▁nieder	-11.5214
▁plant	-11.5214
▁protest	-11.5214
▁pubertät	-11.5214
▁reflektier	-11.5214
▁sagst	-11.5214
▁samml	-11.5214
▁sank	-11.5214
▁schwangerschaft	-11.5214
▁schöpfung	-11.5214
▁sehvermög	-11.5214
▁seti	-11.5214
▁signifikant	-11.5214
▁south	-11.5214
▁springt	-11.5214
▁stühl	-11.5214
▁tempel	-11.5214
▁todesfäll	-11.5214
▁tunnel	-11.5214
▁tv	-11.5214
▁unsinn	-11.5214
▁verhandeln	-11.5214
▁verlangsamt	-11.5214
▁versammelt	-11.5214
▁verwirrend	-11.5214
▁wahlmöglichkeit	-11.5214
▁wahnsinn	-11.5214
▁weitergegeb	-11.5214
▁wiederaufbau	-11.5214
▁würfel	-11.5214
▁zusammenzuarbeit	-11.5214
▁zuverlässig	-11.5214
▁ähneln	-11.5214
▁überblick	-11.5214
▁übernimmt	-11.5214
▁überquert	-11.5214
▁4.000	-11.5504
▁72	-11.5504
▁abbild	-11.5504
▁abraham	-11.5504
▁afghanisch	-11.5504
▁albert	-11.5504
▁antreib	-11.5504
▁apfel	-11.5504
▁assoziiert	-11.5504
▁aufgegeben	-11.5504
▁aufwachs	-11.5504
▁ausgesproch	-11.5504
▁ausgestellt	-11.5504
▁beauftragt	-11.5504
▁besieg	-11.5504
▁bezogen	-11.5504
▁chor	-11.5504
▁clip	-11.5504
▁eingebettet	-11.5504
▁einverstand	-11.5504
▁entnehm	-11.5504
▁entschloss	-11.5504
▁entsprech	-11.5504
▁enzym	-11.5504
▁erderwärmung	-11.5504
▁erfolgsgeschicht	-11.5504
▁ernährt	-11.5504
▁filtern	-11.5504
▁fingern	-11.5504
▁fraktal	-11.5504
▁frühstück	-11.5504
▁förderung	-11.5504
▁füttern	-11.5504
▁garantier	-11.5504
▁gemischt	-11.5504
▁geschäftsführ	-11.5504
▁gesundheitsversorgung	-11.5504
▁gramm	-11.5504
▁hawaii	-11.5504
▁heftig	-11.5504
▁herauskomm	-11.5504
▁herrlich	-11.5504
▁hinzugefügt	-11.5504
▁interessantest	-11.5504
▁israelisch	-11.5504
▁kanal	-11.5504
▁katastrophal	-11.5504
▁kino	-11.5504
▁kommst	-11.5504
▁kriegt	-11.5504
▁kühlschrank	-11.5504
▁libanon	-11.5504
▁lust	-11.5504
▁meeresbod	-11.5504
▁misserfolg	-11.5504
▁mitgefühls	-11.5504
▁mosche	-11.5504
▁moskitonetz	-11.5504
▁ms	-11.5504
▁nachahm	-11.5504
▁nahrungskett	-11.5504
▁notaufnahm	-11.5504
▁optimier	-11.5504
▁paradigma	-11.5504
▁paradox	-11.5504
▁pc	-11.5504
▁pink	-11.5504
▁politikern	-11.5504
▁quall	-11.5504
▁quantenmechanik	-11.5504
▁raubtier	-11.5504
▁registriert	-11.5504
▁ros	-11.5504
▁schrittweis	-11.5504
▁sensorisch	-11.5504
▁serviert	-11.5504
▁skeptisch	-11.5504
▁stattgefund	-11.5504
▁steuer	-11.5504
▁stütz	-11.5504
▁südpol	-11.5504
▁tierart	-11.5504
▁top	-11.5504
▁trank	-11.5504
▁umkehr	-11.5504
▁unsich	-11.5504
▁unternehmens	-11.5504
▁unternomm	-11.5504
▁verband	-11.5504
▁verdächtig	-11.5504
▁vereinbarung	-11.5504
▁verricht	-11.5504
▁vertret	-11.5504
▁verträg	-11.5504
▁vorgeh	-11.5504
▁weihnacht	-11.5504
▁wortwörtlich	-11.5504
▁währenddess	-11.5504
▁zero	-11.5504
▁zitiert	-11.5504
▁zivilgesellschaft	-11.5504
▁zunahm	-11.5504
▁zurückkehrt	-11.5504
▁zurückzukehr	-11.5504
▁ökonomi	-11.5504
▁1997	-11.5802
▁29	-11.5802
▁43	-11.5802
▁abläuft	-11.5802
▁altmodisch	-11.5802
▁angefertigt	-11.5802
▁anzubiet	-11.5802
▁astronaut	-11.5802
▁aufnimmt	-11.5802
▁auseinandersetzung	-11.5802
▁auss	-11.5802
▁autoritär	-11.5802
▁bahnbrechend	-11.5802
▁baseball	-11.5802
▁befürcht	-11.5802
▁begrüß	-11.5802
▁beherrscht	-11.5802
▁benenn	-11.5802
▁besorg	-11.5802
▁betrunken	-11.5802
▁bewerkstellig	-11.5802
▁bunt	-11.5802
▁chirurgisch	-11.5802
▁clever	-11.5802
▁clinton	-11.5802
▁designt	-11.5802
▁divers	-11.5802
▁dr	-11.5802
▁dreieinhalb	-11.5802
▁düng	-11.5802
▁ehefrau	-11.5802
▁einbezieh	-11.5802
▁elektromagnetisch	-11.5802
▁empfand	-11.5802
▁endeffekt	-11.5802
▁enthielt	-11.5802
▁erdoberfläch	-11.5802
▁erfolgreicher	-11.5802
▁erfolgt	-11.5802
▁fortschrittlich	-11.5802
▁freundschaft	-11.5802
▁fäd	-11.5802
▁gedauert	-11.5802
▁genauigkeit	-11.5802
▁geometrisch	-11.5802
▁gewidmet	-11.5802
▁griech	-11.5802
▁hauptstadt	-11.5802
▁herunterlad	-11.5802
▁hinterließ	-11.5802
▁hmm	-11.5802
▁hos	-11.5802
▁hühnch	-11.5802
▁ibm	-11.5802
▁impfung	-11.5802
▁installier	-11.5802
▁is	-11.5802
▁jahrtausend	-11.5802
▁jerusal	-11.5802
▁kast	-11.5802
▁konkurrier	-11.5802
▁korrigier	-11.5802
▁kürzest	-11.5802
▁landesweit	-11.5802
▁lebhaft	-11.5802
▁lewis	-11.5802
▁logo	-11.5802
▁mall	-11.5802
▁mask	-11.5802
▁maßstäb	-11.5802
▁mcdonald	-11.5802
▁miet	-11.5802
▁mikroskopisch	-11.5802
▁moderner	-11.5802
▁monst	-11.5802
▁monterey	-11.5802
▁mrd.	-11.5802
▁nächt	-11.5802
▁primär	-11.5802
▁reservat	-11.5802
▁sau	-11.5802
▁schultern	-11.5802
▁schwefelwasserstoff	-11.5802
▁schwimmt	-11.5802
▁seith	-11.5802
▁siebt	-11.5802
▁sierra	-11.5802
▁simuliert	-11.5802
▁sitzung	-11.5802
▁synaps	-11.5802
▁tageslicht	-11.5802
▁teilhab	-11.5802
▁trauer	-11.5802
▁verarbeitung	-11.5802
▁verberg	-11.5802
▁verschafft	-11.5802
▁verschwendung	-11.5802
▁verärgert	-11.5802
▁vitamin	-11.5802
▁wall	-11.5802
▁wechselwirkung	-11.5802
▁weist	-11.5802
▁witzig	-11.5802
▁wuerd	-11.5802
▁wußt	-11.5802
▁zusammenbring	-11.5802
▁zusammenspiel	-11.5802
▁zutrifft	-11.5802
▁überrasch	-11.5802
▁überschreit	-11.5802
▁6.000	-11.611
▁abbildung	-11.611
▁abgestimmt	-11.611
▁abholzung	-11.611
▁ahn	-11.611
▁akustisch	-11.611
▁angerufen	-11.611
▁atombomb	-11.611
▁aufwach	-11.611
▁ausgerottet	-11.611
▁ausschalt	-11.611
▁ausschau	-11.611
▁bangladesch	-11.611
▁baumkron	-11.611
▁beiseit	-11.611
▁beseitigt	-11.611
▁besetzt	-11.611
▁besonderheit	-11.611
▁betrat	-11.611
▁block	-11.611
▁börs	-11.611
▁cloud	-11.611
▁deut	-11.611
▁diplomati	-11.611
▁düster	-11.611
▁empfindung	-11.611
▁erhalt	-11.611
▁erwerb	-11.611
▁faul	-11.611
▁fixiert	-11.611
▁franzos	-11.611
▁freitag	-11.611
▁frühest	-11.611
▁funktionell	-11.611
▁geriet	-11.611
▁geschwist	-11.611
▁grundsätz	-11.611
▁günstiger	-11.611
▁haf	-11.611
▁herauskam	-11.611
▁herrsch	-11.611
▁hinterkopf	-11.611
▁hong	-11.611
▁häuslich	-11.611
▁indirekt	-11.611
▁iranisch	-11.611
▁irgendw	-11.611
▁ironisch	-11.611
▁kerz	-11.611
▁klag	-11.611
▁kokain	-11.611
▁krankenschwestern	-11.611
▁kriteri	-11.611
▁kündigt	-11.611
▁landung	-11.611
▁larv	-11.611
▁lateinamerika	-11.611
▁lautsprech	-11.611
▁lebenslang	-11.611
▁leih	-11.611
▁leuchtend	-11.611
▁machbar	-11.611
▁mechanism	-11.611
▁meerwass	-11.611
▁membran	-11.611
▁messbar	-11.611
▁mo	-11.611
▁mächtiger	-11.611
▁möbel	-11.611
▁nigerianisch	-11.611
▁panz	-11.611
▁parkplatz	-11.611
▁performanc	-11.611
▁permanent	-11.611
▁pestizid	-11.611
▁reichst	-11.611
▁rekord	-11.611
▁respektiert	-11.611
▁riskier	-11.611
▁russ	-11.611
▁schaffung	-11.611
▁schleif	-11.611
▁schmelz	-11.611
▁schnapp	-11.611
▁schneck	-11.611
▁schreit	-11.611
▁sexy	-11.611
▁sichern	-11.611
▁sinnlos	-11.611
▁spalt	-11.611
▁stehend	-11.611
▁stichprob	-11.611
▁stirn	-11.611
▁story	-11.611
▁streich	-11.611
▁streitgespräch	-11.611
▁ström	-11.611
▁stürz	-11.611
▁talentiert	-11.611
▁testet	-11.611
▁träg	-11.611
▁uf	-11.611
▁uh	-11.611
▁unbegrenzt	-11.611
▁us-amerikanisch	-11.611
▁verabschied	-11.611
▁verkörpert	-11.611
▁vernetzung	-11.611
▁verpackung	-11.611
▁verwaltung	-11.611
▁verzerrt	-11.611
▁verzerrung	-11.611
▁vorhab	-11.611
▁vorhersehbar	-11.611
▁vorzubereit	-11.611
▁wendepunkt	-11.611
▁wk	-11.611
▁würdig	-11.611
▁zeitgenössisch	-11.611
▁zusammenfassung	-11.611
▁zwangsläufig	-11.611
▁zwilling	-11.611
▁älterwerd	-11.611
▁überwachung	-11.611
▁überwältigt	-11.611
▁31	-11.6427
▁5000	-11.6427
▁98	-11.6427
▁abschneid	-11.6427
▁aha	-11.6427
▁akzent	-11.6427
▁alpha	-11.6427
▁anerkenn	-11.6427
▁anspruchsvoll	-11.6427
▁aufwand	-11.6427
▁ausgangspunkt	-11.6427
▁ausgedacht	-11.6427
▁ausgeführt	-11.6427
▁ausgelöscht	-11.6427
▁autofahr	-11.6427
▁außenwelt	-11.6427
▁bach	-11.6427
▁begleit	-11.6427
▁breitet	-11.6427
▁brems	-11.6427
▁bruchteil	-11.6427
▁clev	-11.6427
▁craig	-11.6427
▁designern	-11.6427
▁dirigent	-11.6427
▁dominant	-11.6427
▁draht	-11.6427
▁einschlag	-11.6427
▁energiequell	-11.6427
▁erlitt	-11.6427
▁erstaunlichst	-11.6427
▁erweck	-11.6427
▁essentiell	-11.6427
▁exotisch	-11.6427
▁fallschirm	-11.6427
▁festgelegt	-11.6427
▁filmt	-11.6427
▁flexibel	-11.6427
▁folglich	-11.6427
▁fürchtet	-11.6427
▁fürsorg	-11.6427
▁geschäftswelt	-11.6427
▁getränk	-11.6427
▁globus	-11.6427
▁glücklichst	-11.6427
▁grösser	-11.6427
▁hak	-11.6427
▁harmlos	-11.6427
▁hef	-11.6427
▁heiratet	-11.6427
▁hin-	-11.6427
▁hinausgeh	-11.6427
▁hindernis	-11.6427
▁hinter	-11.6427
▁hochwertig	-11.6427
▁imitier	-11.6427
▁ineinand	-11.6427
▁intakt	-11.6427
▁interpretiert	-11.6427
▁interviewt	-11.6427
▁kansas	-11.6427
▁kennedy	-11.6427
▁kindergart	-11.6427
▁kocht	-11.6427
▁kommuniziert	-11.6427
▁kompetenz	-11.6427
▁kontrast	-11.6427
▁korrupt	-11.6427
▁lebenszeit	-11.6427
▁lehn	-11.6427
▁lernens	-11.6427
▁lichtgeschwindigkeit	-11.6427
▁liess	-11.6427
▁lipp	-11.6427
▁meetings	-11.6427
▁model	-11.6427
▁moskitos	-11.6427
▁mount	-11.6427
▁mozart	-11.6427
▁nachbar	-11.6427
▁nachweis	-11.6427
▁nadeln	-11.6427
▁neugierd	-11.6427
▁neurowissenschaftl	-11.6427
▁niederland	-11.6427
▁oliv	-11.6427
▁partikel	-11.6427
▁passagier	-11.6427
▁pfeifen	-11.6427
▁recherchiert	-11.6427
▁regelrecht	-11.6427
▁research	-11.6427
▁rollt	-11.6427
▁schadstoff	-11.6427
▁schleimpilz	-11.6427
▁schlief	-11.6427
▁schweb	-11.6427
▁schüchtern	-11.6427
▁social	-11.6427
▁spielerisch	-11.6427
▁ss	-11.6427
▁statu	-11.6427
▁südamerika	-11.6427
▁sünd	-11.6427
▁typischerweis	-11.6427
▁umdreh	-11.6427
▁umgebracht	-11.6427
▁unterbrech	-11.6427
▁unterscheidung	-11.6427
▁veranlasst	-11.6427
▁verfasst	-11.6427
▁verhaltens	-11.6427
▁verkäuf	-11.6427
▁verlangsam	-11.6427
▁vermisst	-11.6427
▁verschwend	-11.6427
▁vorgeschlag	-11.6427
▁wahrzunehm	-11.6427
▁widersteh	-11.6427
▁wäldern	-11.6427
▁zoo	-11.6427
▁zoom	-11.6427
▁zugegeben	-11.6427
▁zweifellos	-11.6427
▁zwischenzeit	-11.6427
▁öffnung	-11.6427
▁überaus	-11.6427
▁übermitteln	-11.6427
▁10.	-11.6755
▁ableg	-11.6755
▁abteilung	-11.6755
▁adress	-11.6755
▁alaska	-11.6755
▁album	-11.6755
▁alex	-11.6755
▁anblick	-11.6755
▁anforderung	-11.6755
▁anschließ	-11.6755
▁anthropolog	-11.6755
▁arbeitslos	-11.6755
▁arktisch	-11.6755
▁astronomisch	-11.6755
▁aufzeig	-11.6755
▁ausbreitet	-11.6755
▁ausbreitung	-11.6755
▁ausgesucht	-11.6755
▁ausricht	-11.6755
▁beachtet	-11.6755
▁bedenkt	-11.6755
▁bedingt	-11.6755
▁bestechung	-11.6755
▁bestellt	-11.6755
▁beteiligung	-11.6755
▁beweist	-11.6755
▁brett	-11.6755
▁bösartig	-11.6755
▁cartoon	-11.6755
▁coca-cola	-11.6755
▁cricket	-11.6755
▁cyberkriminell	-11.6755
▁delhi	-11.6755
▁dergleich	-11.6755
▁doodl	-11.6755
▁ego	-11.6755
▁einzelteil	-11.6755
▁einzugeh	-11.6755
▁engel	-11.6755
▁entwürf	-11.6755
▁erfreut	-11.6755
▁ermordet	-11.6755
▁erträg	-11.6755
▁erzog	-11.6755
▁feuern	-11.6755
▁flamm	-11.6755
▁flexibl	-11.6755
▁fruchtflieg	-11.6755
▁fußball	-11.6755
▁gay	-11.6755
▁geologisch	-11.6755
▁gewehr	-11.6755
▁handvoll	-11.6755
▁hebel	-11.6755
▁helium	-11.6755
▁herauskommt	-11.6755
▁higgs-feld	-11.6755
▁hm	-11.6755
▁hochgelad	-11.6755
▁indigen	-11.6755
▁it	-11.6755
▁journal	-11.6755
▁jäg	-11.6755
▁kanadisch	-11.6755
▁katholisch	-11.6755
▁klarheit	-11.6755
▁klient	-11.6755
▁klüger	-11.6755
▁konsumiert	-11.6755
▁kosmos	-11.6755
▁körperteil	-11.6755
▁künftig	-11.6755
▁lebensräum	-11.6755
▁lehrplan	-11.6755
▁lhc	-11.6755
▁lähmung	-11.6755
▁mast	-11.6755
▁mitbring	-11.6755
▁multinational	-11.6755
▁mädchens	-11.6755
▁narb	-11.6755
▁nutzlos	-11.6755
▁operiert	-11.6755
▁ostküst	-11.6755
▁personalisiert	-11.6755
▁priest	-11.6755
▁rauf	-11.6755
▁rechtzeitig	-11.6755
▁reichlich	-11.6755
▁reinig	-11.6755
▁repräsentativ	-11.6755
▁rezeptor	-11.6755
▁schatz	-11.6755
▁schläft	-11.6755
▁schockierend	-11.6755
▁schwerpunkt	-11.6755
▁sechsjährig	-11.6755
▁selbstvertrau	-11.6755
▁spass	-11.6755
▁steigerung	-11.6755
▁steuerung	-11.6755
▁stewart	-11.6755
▁stich	-11.6755
▁stoppt	-11.6755
▁strahl	-11.6755
▁strukturell	-11.6755
▁subtil	-11.6755
▁sylvia	-11.6755
▁tant	-11.6755
▁temporär	-11.6755
▁trock	-11.6755
▁tust	-11.6755
▁umgibt	-11.6755
▁unberührt	-11.6755
▁unnötig	-11.6755
▁ursprüng	-11.6755
▁vakuum	-11.6755
▁verabschiedet	-11.6755
▁verlegt	-11.6755
▁vermehr	-11.6755
▁vermutet	-11.6755
▁vermutung	-11.6755
▁versammeln	-11.6755
▁vieh	-11.6755
▁vorbereit	-11.6755
▁vordergrund	-11.6755
▁vorspiel	-11.6755
▁warn	-11.6755
▁warnung	-11.6755
▁wassers	-11.6755
▁weck	-11.6755
▁weiz	-11.6755
▁werkstatt	-11.6755
▁wundern	-11.6755
▁zulass	-11.6755
▁ästhetisch	-11.6755
▁übergeh	-11.6755
▁überwiegend	-11.6755
▁übt	-11.6755
▁---	-11.7094
▁1,3	-11.7094
▁16.	-11.7094
▁34	-11.7094
▁60.000	-11.7094
▁abkürzung	-11.7094
▁akademik	-11.7094
▁al-qaida	-11.7094
▁amerikanern	-11.7094
▁analog	-11.7094
▁aufpass	-11.7094
▁aufzuhör	-11.7094
▁ausdenk	-11.7094
▁ausgleich	-11.7094
▁bangalor	-11.7094
▁baumwoll	-11.7094
▁bech	-11.7094
▁bedeutendst	-11.7094
▁befestig	-11.7094
▁begang	-11.7094
▁bereitschaft	-11.7094
▁beschleunigung	-11.7094
▁beschützt	-11.7094
▁bezahlung	-11.7094
▁binär	-11.7094
▁blindheit	-11.7094
▁buss	-11.7094
▁canyon	-11.7094
▁chemik	-11.7094
▁chips	-11.7094
▁comedy	-11.7094
▁dalai	-11.7094
▁derart	-11.7094
▁dosis	-11.7094
▁einfacher	-11.7094
▁eingerichtet	-11.7094
▁eingesperrt	-11.7094
▁einklang	-11.7094
▁einsamkeit	-11.7094
▁einzufang	-11.7094
▁entspannt	-11.7094
▁ergreif	-11.7094
▁erstreckt	-11.7094
▁fortfahr	-11.7094
▁frisst	-11.7094
▁fünftel	-11.7094
▁gedeih	-11.7094
▁gefördert	-11.7094
▁gelegen	-11.7094
▁gemäß	-11.7094
▁geografisch	-11.7094
▁geschlaf	-11.7094
▁gesendet	-11.7094
▁gleichermaß	-11.7094
▁grönland	-11.7094
▁gängig	-11.7094
▁health	-11.7094
▁herrschaft	-11.7094
▁honig	-11.7094
▁hypothetisch	-11.7094
▁imag	-11.7094
▁informationstechnologi	-11.7094
▁integrität	-11.7094
▁intensität	-11.7094
▁jazz	-11.7094
▁jefferson	-11.7094
▁joshua	-11.7094
▁knöpf	-11.7094
▁komponist	-11.7094
▁kyros	-11.7094
▁lagos	-11.7094
▁leitung	-11.7094
▁leon	-11.7094
▁materials	-11.7094
▁milo	-11.7094
▁muse	-11.7094
▁myzel	-11.7094
▁neust	-11.7094
▁partnern	-11.7094
▁patientin	-11.7094
▁portugal	-11.7094
▁reduktion	-11.7094
▁schirm	-11.7094
▁schulbildung	-11.7094
▁serv	-11.7094
▁simpel	-11.7094
▁ski	-11.7094
▁sonnensystems	-11.7094
▁sonntag	-11.7094
▁sourc	-11.7094
▁spiegelt	-11.7094
▁stimuliert	-11.7094
▁sträng	-11.7094
▁stürzt	-11.7094
▁subjektiv	-11.7094
▁tass	-11.7094
▁tedtalks	-11.7094
▁tesla	-11.7094
▁thailand	-11.7094
▁tiefse	-11.7094
▁umzuwandeln	-11.7094
▁unfair	-11.7094
▁uniform	-11.7094
▁unmeng	-11.7094
▁unterirdisch	-11.7094
▁unvermeidbar	-11.7094
▁verkünd	-11.7094
▁vermehrt	-11.7094
▁verschickt	-11.7094
▁vorschläg	-11.7094
▁vorsitzend	-11.7094
▁walmart	-11.7094
▁wandelt	-11.7094
▁windenergi	-11.7094
▁wright	-11.7094
▁wurzel	-11.7094
▁zentr	-11.7094
▁zerfall	-11.7094
▁zuhört	-11.7094
▁ärztin	-11.7094
▁übereinstimmt	-11.7094
▁überflüssig	-11.7094
▁1991	-11.7445
▁2015	-11.7445
▁abhandlung	-11.7445
▁act	-11.7445
▁anatomi	-11.7445
▁anleitung	-11.7445
▁apps	-11.7445
▁areal	-11.7445
▁artefakt	-11.7445
▁aufgeteilt	-11.7445
▁aussergewöhnlich	-11.7445
▁auswahlmöglichkeit	-11.7445
▁beach	-11.7445
▁befrag	-11.7445
▁beginnend	-11.7445
▁beliebtest	-11.7445
▁berühmtest	-11.7445
▁bescheiden	-11.7445
▁beschwer	-11.7445
▁blockier	-11.7445
▁bucht	-11.7445
▁danny	-11.7445
▁darm	-11.7445
▁datensatz	-11.7445
▁denjenig	-11.7445
▁deprimiert	-11.7445
▁drach	-11.7445
▁eingenomm	-11.7445
▁eingreif	-11.7445
▁elementar	-11.7445
▁erkrankt	-11.7445
▁erlernt	-11.7445
▁ewigkeit	-11.7445
▁expansion	-11.7445
▁explodier	-11.7445
▁familienmitglied	-11.7445
▁feiert	-11.7445
▁formular	-11.7445
▁freigesetzt	-11.7445
▁gallon	-11.7445
▁gebühr	-11.7445
▁geehrt	-11.7445
▁gekennzeichnet	-11.7445
▁genoms	-11.7445
▁geschöpf	-11.7445
▁gesteckt	-11.7445
▁gestört	-11.7445
▁gewaltlos	-11.7445
▁gitt	-11.7445
▁glücks	-11.7445
▁hamburg	-11.7445
▁handwerk	-11.7445
▁hattest	-11.7445
▁hiv-positiv	-11.7445
▁hof	-11.7445
▁honigbien	-11.7445
▁huhn	-11.7445
▁händl	-11.7445
▁höflich	-11.7445
▁instabil	-11.7445
▁integration	-11.7445
▁jami	-11.7445
▁jem	-11.7445
▁johnny	-11.7445
▁jupit	-11.7445
▁klimaanlag	-11.7445
▁klopft	-11.7445
▁konzern	-11.7445
▁kosovo	-11.7445
▁kraftwerk	-11.7445
▁lebensweis	-11.7445
▁lichtjahr	-11.7445
▁louis	-11.7445
▁lächelt	-11.7445
▁läd	-11.7445
▁malerei	-11.7445
▁mammographi	-11.7445
▁manipulation	-11.7445
▁maschinell	-11.7445
▁meld	-11.7445
▁milchstraß	-11.7445
▁minist	-11.7445
▁montana	-11.7445
▁my	-11.7445
▁mythologi	-11.7445
▁niedrigst	-11.7445
▁nordost	-11.7445
▁offenbarung	-11.7445
▁period	-11.7445
▁prinz	-11.7445
▁projektion	-11.7445
▁präfrontal	-11.7445
▁psych	-11.7445
▁psychiat	-11.7445
▁qualifiziert	-11.7445
▁raffiniert	-11.7445
▁reiß	-11.7445
▁renaissanc	-11.7445
▁rind	-11.7445
▁rückenmark	-11.7445
▁savann	-11.7445
▁scher	-11.7445
▁schlachtfeld	-11.7445
▁schwerst	-11.7445
▁sequenziert	-11.7445
▁spazier	-11.7445
▁spektrums	-11.7445
▁stadium	-11.7445
▁stürm	-11.7445
▁toleranz	-11.7445
▁transformier	-11.7445
▁trau	-11.7445
▁ueb	-11.7445
▁umgeht	-11.7445
▁undeutlich	-11.7445
▁unruh	-11.7445
▁venus	-11.7445
▁verbringt	-11.7445
▁versammlung	-11.7445
▁verschlüsselt	-11.7445
▁veteran	-11.7445
▁vogelgripp	-11.7445
▁vorführung	-11.7445
▁vorherzusag	-11.7445
▁wegnehm	-11.7445
▁weitergeh	-11.7445
▁wendet	-11.7445
▁wieg	-11.7445
▁you	-11.7445
▁zehntel	-11.7445
▁zeugs	-11.7445
▁zufäll	-11.7445
▁zurückbring	-11.7445
▁zusammengesetzt	-11.7445
▁zusammensetzung	-11.7445
▁äquivalent	-11.7445
▁übel	-11.7445
▁übereinstimm	-11.7445
▁1,2	-11.7809
▁140	-11.7809
▁180	-11.7809
▁1975	-11.7809
▁1996	-11.7809
▁97	-11.7809
▁abgeschnitt	-11.7809
▁abnahm	-11.7809
▁alphabet	-11.7809
▁anekdot	-11.7809
▁angeb	-11.7809
▁angeboren	-11.7809
▁angeordnet	-11.7809
▁arktis	-11.7809
▁assistent	-11.7809
▁astronomi	-11.7809
▁atmet	-11.7809
▁aufzeichn	-11.7809
▁auskomm	-11.7809
▁babbag	-11.7809
▁banal	-11.7809
▁barmherzigkeit	-11.7809
▁barrel	-11.7809
▁begeistern	-11.7809
▁beheb	-11.7809
▁bemerkung	-11.7809
▁bestraft	-11.7809
▁beständig	-11.7809
▁bisherig	-11.7809
▁bosni	-11.7809
▁carl	-11.7809
▁charakteristisch	-11.7809
▁deutet	-11.7809
▁diego	-11.7809
▁dreifach	-11.7809
▁dschungel	-11.7809
▁edi	-11.7809
▁ehrgeizig	-11.7809
▁eindrucksvoll	-11.7809
▁eingang	-11.7809
▁einheitlich	-11.7809
▁einschalt	-11.7809
▁erdöl	-11.7809
▁erfassung	-11.7809
▁erfährt	-11.7809
▁erhältlich	-11.7809
▁etikett	-11.7809
▁experimentiert	-11.7809
▁fach	-11.7809
▁fakultät	-11.7809
▁falk	-11.7809
▁flucht	-11.7809
▁fluktuation	-11.7809
▁forc	-11.7809
▁fürchterlich	-11.7809
▁gefaltet	-11.7809
▁gefeiert	-11.7809
▁geheimdienst	-11.7809
▁gekostet	-11.7809
▁geliefert	-11.7809
▁geschnitt	-11.7809
▁gespendet	-11.7809
▁gewartet	-11.7809
▁gewissheit	-11.7809
▁globalisiert	-11.7809
▁glänzend	-11.7809
▁gouverneur	-11.7809
▁gruselig	-11.7809
▁hamm	-11.7809
▁handgelenk	-11.7809
▁herausragend	-11.7809
▁hervorheb	-11.7809
▁hiervon	-11.7809
▁hierzu	-11.7809
▁hinab	-11.7809
▁hotels	-11.7809
▁indian	-11.7809
▁interagiert	-11.7809
▁ka	-11.7809
▁kathedral	-11.7809
▁keith	-11.7809
▁kenntniss	-11.7809
▁kipp	-11.7809
▁klapp	-11.7809
▁kollision	-11.7809
▁kommun	-11.7809
▁kong	-11.7809
▁koreanisch	-11.7809
▁kratz	-11.7809
▁kriminalität	-11.7809
▁kuba	-11.7809
▁käfig	-11.7809
▁küss	-11.7809
▁lama	-11.7809
▁lecker	-11.7809
▁lizenz	-11.7809
▁locker	-11.7809
▁loslass	-11.7809
▁michigan	-11.7809
▁mikrobiell	-11.7809
▁minerali	-11.7809
▁missbraucht	-11.7809
▁mix	-11.7809
▁mm	-11.7809
▁motorisch	-11.7809
▁nachforschung	-11.7809
▁nass	-11.7809
▁nehmt	-11.7809
▁no	-11.7809
▁orangen	-11.7809
▁palästina	-11.7809
▁paramet	-11.7809
▁parkinson	-11.7809
▁pflanzt	-11.7809
▁pittsburgh	-11.7809
▁point	-11.7809
▁rechenleistung	-11.7809
▁rechtfertig	-11.7809
▁regelwerk	-11.7809
▁reiz	-11.7809
▁relation	-11.7809
▁remix	-11.7809
▁resistent	-11.7809
▁riskant	-11.7809
▁sandwich	-11.7809
▁schall	-11.7809
▁schießt	-11.7809
▁schildkröt	-11.7809
▁spielern	-11.7809
▁spul	-11.7809
▁sputnik	-11.7809
▁sterblichkeit	-11.7809
▁synthes	-11.7809
▁technischer	-11.7809
▁teig	-11.7809
▁titelseit	-11.7809
▁toast	-11.7809
▁train	-11.7809
▁trinkt	-11.7809
▁ts	-11.7809
▁umsatz	-11.7809
▁umweltproblem	-11.7809
▁unausweichlich	-11.7809
▁ungeachtet	-11.7809
▁unternehmerisch	-11.7809
▁unterst	-11.7809
▁unvermeidlich	-11.7809
▁vegas	-11.7809
▁verbleibend	-11.7809
▁verblüfft	-11.7809
▁verheerend	-11.7809
▁vermisch	-11.7809
▁vernetz	-11.7809
▁versuchung	-11.7809
▁vielversprechend	-11.7809
▁vietnam	-11.7809
▁vorherrschend	-11.7809
▁warr	-11.7809
▁weigert	-11.7809
▁weisst	-11.7809
▁wellenläng	-11.7809
▁wesweg	-11.7809
▁wiederherzustell	-11.7809
▁wohlergeh	-11.7809
▁wohltätigkeit	-11.7809
▁wolfram	-11.7809
▁zukomm	-11.7809
▁zweidimensional	-11.7809
▁zylind	-11.7809
▁übereinstimmung	-11.7809
▁übergeb	-11.7809
▁12.	-11.8186
▁1945	-11.8186
▁1980ern	-11.8186
▁1993	-11.8186
▁3.	-11.8186
▁44	-11.8186
▁50ern	-11.8186
▁86	-11.8186
▁96	-11.8186
▁abgebildet	-11.8186
▁altruismus	-11.8186
▁amt	-11.8186
▁anfühl	-11.8186
▁angelangt	-11.8186
▁angezeigt	-11.8186
▁apollo	-11.8186
▁argentini	-11.8186
▁ausbruch	-11.8186
▁ausrottung	-11.8186
▁autonomi	-11.8186
▁avatar	-11.8186
▁beachtung	-11.8186
▁bekanntest	-11.8186
▁bekommst	-11.8186
▁bekäm	-11.8186
▁beschränk	-11.8186
▁besprech	-11.8186
▁bestraf	-11.8186
▁betont	-11.8186
▁bewundern	-11.8186
▁blutig	-11.8186
▁brad	-11.8186
▁brandneu	-11.8186
▁brokkoli	-11.8186
▁buddha	-11.8186
▁bursch	-11.8186
▁club	-11.8186
▁cortex	-11.8186
▁cousin	-11.8186
▁d.	-11.8186
▁demonstriert	-11.8186
▁demut	-11.8186
▁digitalisier	-11.8186
▁diktator	-11.8186
▁disney	-11.8186
▁dominierend	-11.8186
▁dreck	-11.8186
▁däch	-11.8186
▁ebay	-11.8186
▁edinburgh	-11.8186
▁egoistisch	-11.8186
▁ehrlichkeit	-11.8186
▁einhundert	-11.8186
▁einzelheit	-11.8186
▁einzuführ	-11.8186
▁entführt	-11.8186
▁entschlüsseln	-11.8186
▁entsprach	-11.8186
▁erbaut	-11.8186
▁ereignet	-11.8186
▁erforderlich	-11.8186
▁erhoben	-11.8186
▁erleuchtung	-11.8186
▁fehlern	-11.8186
▁festgehalten	-11.8186
▁finnland	-11.8186
▁flexibilität	-11.8186
▁forder	-11.8186
▁frustrierend	-11.8186
▁furcht	-11.8186
▁fußgäng	-11.8186
▁gebt	-11.8186
▁gefälscht	-11.8186
▁gefäß	-11.8186
▁gegenübersteh	-11.8186
▁geig	-11.8186
▁gekocht	-11.8186
▁gelt	-11.8186
▁gespart	-11.8186
▁gezahlt	-11.8186
▁gleicht	-11.8186
▁gre	-11.8186
▁great	-11.8186
▁großartigst	-11.8186
▁grüner	-11.8186
▁gärt	-11.8186
▁handschrift	-11.8186
▁heimlich	-11.8186
▁herumlauf	-11.8186
▁hilflos	-11.8186
▁hingab	-11.8186
▁hom	-11.8186
▁hühn	-11.8186
▁ideologisch	-11.8186
▁imitiert	-11.8186
▁immateriell	-11.8186
▁improvisier	-11.8186
▁improvisiert	-11.8186
▁informatik	-11.8186
▁iq	-11.8186
▁jagd	-11.8186
▁kapitän	-11.8186
▁kennenlern	-11.8186
▁ki	-11.8186
▁klickt	-11.8186
▁klipp	-11.8186
▁klische	-11.8186
▁kollaborativ	-11.8186
▁kollaps	-11.8186
▁komplexer	-11.8186
▁kritisiert	-11.8186
▁langlebigkeit	-11.8186
▁lob	-11.8186
▁lov	-11.8186
▁ma	-11.8186
▁mac	-11.8186
▁mill	-11.8186
▁millimet	-11.8186
▁mittag	-11.8186
▁mörd	-11.8186
▁namibia	-11.8186
▁neuerung	-11.8186
▁neurogenes	-11.8186
▁nik	-11.8186
▁notwendigerweis	-11.8186
▁nr.	-11.8186
▁nsa	-11.8186
▁oberflächlich	-11.8186
▁orientierung	-11.8186
▁paradi	-11.8186
▁philadelphia	-11.8186
▁profitiert	-11.8186
▁propaganda	-11.8186
▁prozessor	-11.8186
▁qualitativ	-11.8186
▁ratschläg	-11.8186
▁rechenmaschin	-11.8186
▁rechenschaft	-11.8186
▁reproduzier	-11.8186
▁royal	-11.8186
▁santa	-11.8186
▁scheitert	-11.8186
▁schenkt	-11.8186
▁schifffahrt	-11.8186
▁schlafzimm	-11.8186
▁schoß	-11.8186
▁schwedisch	-11.8186
▁schäm	-11.8186
▁selbständig	-11.8186
▁selektiv	-11.8186
▁slum	-11.8186
▁sprichwort	-11.8186
▁spruch	-11.8186
▁staun	-11.8186
▁sterblichkeitsrat	-11.8186
▁stickstoff	-11.8186
▁stillstand	-11.8186
▁stringtheori	-11.8186
▁stör	-11.8186
▁superheld	-11.8186
▁symphoni	-11.8186
▁tast	-11.8186
▁testperson	-11.8186
▁tiefgründig	-11.8186
▁todesursach	-11.8186
▁umstritten	-11.8186
▁umweltschutz	-11.8186
▁unbeabsichtigt	-11.8186
▁unbedeutend	-11.8186
▁unfähig	-11.8186
▁uno	-11.8186
▁unternahm	-11.8186
▁unterteil	-11.8186
▁v.	-11.8186
▁verdeckt	-11.8186
▁verdeutlich	-11.8186
▁verhältniss	-11.8186
▁verschiebung	-11.8186
▁vorort	-11.8186
▁wahrhaft	-11.8186
▁walt	-11.8186
▁wandeln	-11.8186
▁wandt	-11.8186
▁wertschätz	-11.8186
▁who	-11.8186
▁widersprüchlich	-11.8186
▁zurückblick	-11.8186
▁zweitgrößt	-11.8186
▁überrest	-11.8186
▁übersteh	-11.8186
▁15.	-11.8578
▁150.000	-11.8578
▁38	-11.8578
▁3d-druck	-11.8578
▁47	-11.8578
▁52	-11.8578
▁ablenkung	-11.8578
▁abstraktion	-11.8578
▁ansteig	-11.8578
▁antikörp	-11.8578
▁aquarium	-11.8578
▁arbeitslosigkeit	-11.8578
▁argumentiert	-11.8578
▁athlet	-11.8578
▁audio	-11.8578
▁aufführung	-11.8578
▁auflös	-11.8578
▁aufregendst	-11.8578
▁aufstand	-11.8578
▁aufständ	-11.8578
▁ausdrückt	-11.8578
▁auseinandersetz	-11.8578
▁auswendig	-11.8578
▁authentizität	-11.8578
▁autounfall	-11.8578
▁befreiung	-11.8578
▁begrenzung	-11.8578
▁begrüßt	-11.8578
▁beijing	-11.8578
▁beschwerd	-11.8578
▁beschwert	-11.8578
▁besprechung	-11.8578
▁bewahrt	-11.8578
▁blutgefäss	-11.8578
▁bonobos	-11.8578
▁central	-11.8578
▁cents	-11.8578
▁co2-emission	-11.8578
▁cousins	-11.8578
▁d.c.	-11.8578
▁doktorand	-11.8578
▁doug	-11.8578
▁drang	-11.8578
▁dreckig	-11.8578
▁druckerpress	-11.8578
▁drängt	-11.8578
▁dunkeln	-11.8578
▁dänemark	-11.8578
▁east	-11.8578
▁ehrfurcht	-11.8578
▁eig	-11.8578
▁ein-	-11.8578
▁einfang	-11.8578
▁eintausend	-11.8578
▁eintrag	-11.8578
▁einzelperson	-11.8578
▁eisbär	-11.8578
▁enthüll	-11.8578
▁entlegen	-11.8578
▁enzyklopädi	-11.8578
▁erachtens	-11.8578
▁erectus	-11.8578
▁erleid	-11.8578
▁errat	-11.8578
▁erschoss	-11.8578
▁ethanol	-11.8578
▁fad	-11.8578
▁fan	-11.8578
▁fazit	-11.8578
▁fda	-11.8578
▁fertiggestellt	-11.8578
▁finanzkris	-11.8578
▁format	-11.8578
▁fortpflanzung	-11.8578
▁fortwährend	-11.8578
▁fossili	-11.8578
▁führungspersönlichkeit	-11.8578
▁geantwortet	-11.8578
▁geographisch	-11.8578
▁gestoppt	-11.8578
▁goliath	-11.8578
▁grammatik	-11.8578
▁grundide	-11.8578
▁halbiert	-11.8578
▁handfläch	-11.8578
▁helikopt	-11.8578
▁hervorzubring	-11.8578
▁hierhin	-11.8578
▁hinseh	-11.8578
▁hüt	-11.8578
▁ikon	-11.8578
▁improvisation	-11.8578
▁index	-11.8578
▁innern	-11.8578
▁isolation	-11.8578
▁jay	-11.8578
▁jc	-11.8578
▁kamm	-11.8578
▁kennenlernt	-11.8578
▁klär	-11.8578
▁kopfschmerz	-11.8578
▁krabb	-11.8578
▁krankenschwest	-11.8578
▁krokodil	-11.8578
▁körpersprach	-11.8578
▁lebensdau	-11.8578
▁lebensmitteln	-11.8578
▁leich	-11.8578
▁lichtstrahl	-11.8578
▁mangelnd	-11.8578
▁massachusetts	-11.8578
▁mechanik	-11.8578
▁monatlich	-11.8578
▁mönch	-11.8578
▁neigt	-11.8578
▁neuronal	-11.8578
▁ngos	-11.8578
▁nicht-tödlich	-11.8578
▁nicol	-11.8578
▁nobelpreis	-11.8578
▁operier	-11.8578
▁orleans	-11.8578
▁ostafrika	-11.8578
▁osteuropa	-11.8578
▁paket	-11.8578
▁pat	-11.8578
▁pennsylvania	-11.8578
▁peru	-11.8578
▁philip	-11.8578
▁plankton	-11.8578
▁portrait	-11.8578
▁privatleb	-11.8578
▁prophet	-11.8578
▁proportional	-11.8578
▁prozedur	-11.8578
▁präsent	-11.8578
▁präsenz	-11.8578
▁psychopath	-11.8578
▁publikums	-11.8578
▁rassismus	-11.8578
▁recycling	-11.8578
▁regenerier	-11.8578
▁rekonstruier	-11.8578
▁resonanz	-11.8578
▁riv	-11.8578
▁rob	-11.8578
▁ruhm	-11.8578
▁räd	-11.8578
▁saudi	-11.8578
▁schwimmend	-11.8578
▁schäd	-11.8578
▁sechst	-11.8578
▁sehn	-11.8578
▁separat	-11.8578
▁skript	-11.8578
▁solar	-11.8578
▁solltest	-11.8578
▁sonderlich	-11.8578
▁sp	-11.8578
▁spac	-11.8578
▁steil	-11.8578
▁strahlt	-11.8578
▁strömt	-11.8578
▁supernova	-11.8578
▁szenari	-11.8578
▁sämtlich	-11.8578
▁tagsüb	-11.8578
▁tank	-11.8578
▁tasmanisch	-11.8578
▁tedtalk	-11.8578
▁terror	-11.8578
▁trivial	-11.8578
▁umwandlung	-11.8578
▁ungerechtigkeit	-11.8578
▁unterbrechung	-11.8578
▁ushahidi	-11.8578
▁verbiet	-11.8578
▁verbot	-11.8578
▁vereinfach	-11.8578
▁verfass	-11.8578
▁verlass	-11.8578
▁verlieh	-11.8578
▁verstreut	-11.8578
▁vertrauenswürdig	-11.8578
▁verwickelt	-11.8578
▁verwurzelt	-11.8578
▁volum	-11.8578
▁vorgeht	-11.8578
▁vorschrift	-11.8578
▁wahrst	-11.8578
▁weggeh	-11.8578
▁westküst	-11.8578
▁wiederholung	-11.8578
▁zahllos	-11.8578
▁zunehm	-11.8578
▁zustimmung	-11.8578
▁zuviel	-11.8578
▁äst	-11.8578
▁überlegung	-11.8578
▁überraschenderweis	-11.8578
▁0	-11.8987
▁160	-11.8987
▁25.000	-11.8987
▁450	-11.8987
▁900	-11.8987
▁abgrund	-11.8987
▁abhalt	-11.8987
▁absolvent	-11.8987
▁abspielt	-11.8987
▁abwesenheit	-11.8987
▁alan	-11.8987
▁allerlei	-11.8987
▁amateur	-11.8987
▁angehalt	-11.8987
▁anhaltend	-11.8987
▁anordnung	-11.8987
▁anstoß	-11.8987
▁anziehungskraft	-11.8987
▁ao	-11.8987
▁aufgezog	-11.8987
▁aufspür	-11.8987
▁augenblicklich	-11.8987
▁ausschlaggebend	-11.8987
▁aussehend	-11.8987
▁ausserhalb	-11.8987
▁auszugeb	-11.8987
▁außenseit	-11.8987
▁bedank	-11.8987
▁beiträgt	-11.8987
▁bekämpft	-11.8987
▁belohn	-11.8987
▁benehm	-11.8987
▁benutzung	-11.8987
▁bereitstell	-11.8987
▁besiegt	-11.8987
▁betreibt	-11.8987
▁betreu	-11.8987
▁bieg	-11.8987
▁bildlich	-11.8987
▁biotechnologi	-11.8987
▁blutdruck	-11.8987
▁bmw	-11.8987
▁brennend	-11.8987
▁busch	-11.8987
▁chirurgi	-11.8987
▁cholera	-11.8987
▁christlich	-11.8987
▁co	-11.8987
▁dallas	-11.8987
▁demografisch	-11.8987
▁droht	-11.8987
▁durchbrech	-11.8987
▁durchdring	-11.8987
▁durchsucht	-11.8987
▁einflüss	-11.8987
▁eingeb	-11.8987
▁eingebracht	-11.8987
▁enthusiasmus	-11.8987
▁erschließ	-11.8987
▁extra-dimension	-11.8987
▁extrahier	-11.8987
▁fed	-11.8987
▁ferngesteuert	-11.8987
▁fesselnd	-11.8987
▁feststellt	-11.8987
▁festzuhalt	-11.8987
▁fettleibig	-11.8987
▁fg	-11.8987
▁films	-11.8987
▁franklin	-11.8987
▁fühlst	-11.8987
▁führungskraft	-11.8987
▁gefährlichst	-11.8987
▁gelächt	-11.8987
▁geriss	-11.8987
▁gesichtern	-11.8987
▁gesichtsausdrück	-11.8987
▁gewähr	-11.8987
▁gliedmaß	-11.8987
▁gratis	-11.8987
▁helm	-11.8987
▁herab	-11.8987
▁herzleid	-11.8987
▁hg	-11.8987
▁hirt	-11.8987
▁hochentwickelt	-11.8987
▁hochschul	-11.8987
▁innerlich	-11.8987
▁irrtum	-11.8987
▁journalismus	-11.8987
▁julia	-11.8987
▁kambodscha	-11.8987
▁kibera	-11.8987
▁kilogramm	-11.8987
▁komet	-11.8987
▁kästch	-11.8987
▁laun	-11.8987
▁law	-11.8987
▁le	-11.8987
▁lenkt	-11.8987
▁letz	-11.8987
▁liberia	-11.8987
▁lock	-11.8987
▁marihuana	-11.8987
▁menschenmeng	-11.8987
▁menschenverstand	-11.8987
▁mitgeb	-11.8987
▁modellier	-11.8987
▁moma	-11.8987
▁mondfisch	-11.8987
▁multiplizier	-11.8987
▁mysterium	-11.8987
▁myth	-11.8987
▁nachthimmel	-11.8987
▁nanotechnologi	-11.8987
▁natasha	-11.8987
▁nationalpark	-11.8987
▁nepal	-11.8987
▁niedriger	-11.8987
▁nonverbal	-11.8987
▁offenbart	-11.8987
▁orientiert	-11.8987
▁philanthropi	-11.8987
▁physiologi	-11.8987
▁polymer	-11.8987
▁programms	-11.8987
▁prominent	-11.8987
▁prägt	-11.8987
▁radfahr	-11.8987
▁rasant	-11.8987
▁rennt	-11.8987
▁ries	-11.8987
▁riskiert	-11.8987
▁romantik	-11.8987
▁sapiens	-11.8987
▁sauberer	-11.8987
▁schliesslich	-11.8987
▁schneidet	-11.8987
▁schreck	-11.8987
▁schwingung	-11.8987
▁senior	-11.8987
▁senkrecht	-11.8987
▁sequenzier	-11.8987
▁sj	-11.8987
▁skyp	-11.8987
▁smart	-11.8987
▁soeb	-11.8987
▁sofortig	-11.8987
▁somalia	-11.8987
▁stab	-11.8987
▁sterbend	-11.8987
▁stimulation	-11.8987
▁stipendium	-11.8987
▁strich	-11.8987
▁süßigkeit	-11.8987
▁tablett	-11.8987
▁tankstell	-11.8987
▁teilchenphysik	-11.8987
▁tibet	-11.8987
▁transplantation	-11.8987
▁turm	-11.8987
▁umfass	-11.8987
▁ungleich	-11.8987
▁unwohl	-11.8987
▁vereinigung	-11.8987
▁vergaß	-11.8987
▁verhandelt	-11.8987
▁vers	-11.8987
▁verschick	-11.8987
▁versus	-11.8987
▁verzeichnet	-11.8987
▁verzicht	-11.8987
▁vorführ	-11.8987
▁vorgesetzt	-11.8987
▁vorm	-11.8987
▁vorzüg	-11.8987
▁wanderung	-11.8987
▁wang	-11.8987
▁weckt	-11.8987
▁werb	-11.8987
▁würm	-11.8987
▁zehnmal	-11.8987
▁zeiträum	-11.8987
▁zeremoni	-11.8987
▁zoll	-11.8987
▁zorn	-11.8987
▁zugelass	-11.8987
▁zurückgelassen	-11.8987
▁zyklus	-11.8987
▁ägyptisch	-11.8987
▁äußern	-11.8987
▁ölkatastroph	-11.8987
▁ölpreis	-11.8987
▁übergewichtig	-11.8987
▁überwacht	-11.8987
▁125	-11.9412
▁14.	-11.9412
▁1968	-11.9412
▁1973	-11.9412
▁1989	-11.9412
▁6.	-11.9412
▁abgelehnt	-11.9412
▁abgeordnet	-11.9412
▁ablehn	-11.9412
▁abruf	-11.9412
▁abschied	-11.9412
▁akustik	-11.9412
▁akzeptanz	-11.9412
▁amsterdam	-11.9412
▁aneinand	-11.9412
▁angab	-11.9412
▁angenehmer	-11.9412
▁anlass	-11.9412
▁ann	-11.9412
▁anpassungsfähig	-11.9412
▁ansässig	-11.9412
▁antun	-11.9412
▁anzusprech	-11.9412
▁atomar	-11.9412
▁aufgelöst	-11.9412
▁aufweist	-11.9412
▁ausgeschloss	-11.9412
▁ausrichtung	-11.9412
▁auswirk	-11.9412
▁auszuführ	-11.9412
▁banjo	-11.9412
▁barack	-11.9412
▁bauunternehm	-11.9412
▁belang	-11.9412
▁benutzeroberfläch	-11.9412
▁beratung	-11.9412
▁beruh	-11.9412
▁betrog	-11.9412
▁bhutan	-11.9412
▁bloss	-11.9412
▁blöck	-11.9412
▁brauchbar	-11.9412
▁british	-11.9412
▁brows	-11.9412
▁bruc	-11.9412
▁brüdern	-11.9412
▁buddhistisch	-11.9412
▁columbia	-11.9412
▁community	-11.9412
▁coop	-11.9412
▁diplomatisch	-11.9412
▁effektivst	-11.9412
▁eim	-11.9412
▁emily	-11.9412
▁entscheidungsträg	-11.9412
▁erfordern	-11.9412
▁ergänz	-11.9412
▁erleichterung	-11.9412
▁erregt	-11.9412
▁erstaunlicherweis	-11.9412
▁erwies	-11.9412
▁fehlerhaft	-11.9412
▁feindlich	-11.9412
▁feldern	-11.9412
▁feuchtigkeit	-11.9412
▁finanz	-11.9412
▁francis	-11.9412
▁früherkennung	-11.9412
▁fusion	-11.9412
▁fünfzig	-11.9412
▁gegenstück	-11.9412
▁geheimnisvoll	-11.9412
▁gelenk	-11.9412
▁gesamtheit	-11.9412
▁geschaut	-11.9412
▁geschäftsleut	-11.9412
▁gesegnet	-11.9412
▁gesetzlich	-11.9412
▁getrunk	-11.9412
▁gleichberechtigung	-11.9412
▁großbritanniens	-11.9412
▁guckt	-11.9412
▁gyrus	-11.9412
▁handzeich	-11.9412
▁heilmittel	-11.9412
▁heimisch	-11.9412
▁heiss	-11.9412
▁herkommt	-11.9412
▁herzerkrankung	-11.9412
▁heterosexuell	-11.9412
▁himalaya	-11.9412
▁hindern	-11.9412
▁hinterlässt	-11.9412
▁hippocampus	-11.9412
▁hirns	-11.9412
▁hochhaus	-11.9412
▁hod	-11.9412
▁hoffnungsvoll	-11.9412
▁härter	-11.9412
▁input	-11.9412
▁insulin	-11.9412
▁intrinsisch	-11.9412
▁ironischerweis	-11.9412
▁jagt	-11.9412
▁jeopardy	-11.9412
▁karikaturist	-11.9412
▁katrina	-11.9412
▁keim	-11.9412
▁keks	-11.9412
▁kennenzulern	-11.9412
▁klau	-11.9412
▁koff	-11.9412
▁kompetent	-11.9412
▁komplikation	-11.9412
▁korrelation	-11.9412
▁kugeln	-11.9412
▁lateinisch	-11.9412
▁lebzeit	-11.9412
▁leitend	-11.9412
▁lieferkett	-11.9412
▁lila	-11.9412
▁lord	-11.9412
▁lungenentzündung	-11.9412
▁mad	-11.9412
▁maria	-11.9412
▁mehrmals	-11.9412
▁meistern	-11.9412
▁michelangelo	-11.9412
▁migration	-11.9412
▁mitarbeitern	-11.9412
▁mittelschicht	-11.9412
▁mitternacht	-11.9412
▁mohammed	-11.9412
▁mos	-11.9412
▁mrt	-11.9412
▁museums	-11.9412
▁nairobi	-11.9412
▁nebeneffekt	-11.9412
▁neocortex	-11.9412
▁neural	-11.9412
▁nordkorea	-11.9412
▁nutzbar	-11.9412
▁ohnehin	-11.9412
▁peking	-11.9412
▁pipelin	-11.9412
▁praktiziert	-11.9412
▁projiziert	-11.9412
▁quadratkilomet	-11.9412
▁rausgeh	-11.9412
▁rehabilitation	-11.9412
▁reichhaltig	-11.9412
▁relativitätstheori	-11.9412
▁reputation	-11.9412
▁rl	-11.9412
▁ruder	-11.9412
▁rückgängig	-11.9412
▁rührt	-11.9412
▁samuel	-11.9412
▁sb	-11.9412
▁schmeck	-11.9412
▁schmetterling	-11.9412
▁schnappt	-11.9412
▁schutzgebiet	-11.9412
▁schwebt	-11.9412
▁schwärm	-11.9412
▁sensibl	-11.9412
▁sexualität	-11.9412
▁signatur	-11.9412
▁songs	-11.9412
▁spaziergang	-11.9412
▁speichert	-11.9412
▁starrt	-11.9412
▁streckt	-11.9412
▁stränd	-11.9412
▁sudan	-11.9412
▁susan	-11.9412
▁tamiflu	-11.9412
▁termin	-11.9412
▁textur	-11.9412
▁tierwelt	-11.9412
▁toronto	-11.9412
▁trop	-11.9412
▁täusch	-11.9412
▁ultraviolett	-11.9412
▁universal	-11.9412
▁unsicher	-11.9412
▁unterdrückung	-11.9412
▁untergrab	-11.9412
▁unternehmern	-11.9412
▁unterstützend	-11.9412
▁unvollständig	-11.9412
▁verankert	-11.9412
▁veranstalt	-11.9412
▁verbundenheit	-11.9412
▁verdank	-11.9412
▁verfügbarkeit	-11.9412
▁verhaltensänderung	-11.9412
▁verpflicht	-11.9412
▁versproch	-11.9412
▁viermal	-11.9412
▁viral	-11.9412
▁vorder	-11.9412
▁vorstellbar	-11.9412
▁walk	-11.9412
▁wandels	-11.9412
▁wandertaub	-11.9412
▁widerspiegelt	-11.9412
▁wohnwag	-11.9412
▁zufolg	-11.9412
▁zugreif	-11.9412
▁zuzugeb	-11.9412
▁ärmer	-11.9412
▁überschritt	-11.9412
▁übertreib	-11.9412
▁übertrieb	-11.9412
▁110	-11.9857
▁1950ern	-11.9857
▁1970ern	-11.9857
▁1986	-11.9857
▁250.000	-11.9857
▁400.000	-11.9857
▁5.	-11.9857
▁59	-11.9857
▁7.	-11.9857
▁abbrech	-11.9857
▁abwass	-11.9857
▁agn	-11.9857
▁analysis	-11.9857
▁anfänglich	-11.9857
▁angeregt	-11.9857
▁anhört	-11.9857
▁anklick	-11.9857
▁anständig	-11.9857
▁arbeitskräft	-11.9857
▁as	-11.9857
▁atrazin	-11.9857
▁aufgeklärt	-11.9857
▁aufrechterhalt	-11.9857
▁aufregender	-11.9857
▁aufsteig	-11.9857
▁aufzug	-11.9857
▁ausgedehnt	-11.9857
▁ausgeglichen	-11.9857
▁ausgelegt	-11.9857
▁ausgerechnet	-11.9857
▁ausgeseh	-11.9857
▁auszeichnung	-11.9857
▁auszutausch	-11.9857
▁avenu	-11.9857
▁bakteriell	-11.9857
▁beerdigung	-11.9857
▁begehr	-11.9857
▁behielt	-11.9857
▁beispiellos	-11.9857
▁beleuchtet	-11.9857
▁besessenheit	-11.9857
▁bestell	-11.9857
▁betrachtungsweis	-11.9857
▁betreffend	-11.9857
▁betriebssyst	-11.9857
▁betritt	-11.9857
▁bezahlbar	-11.9857
▁bits	-11.9857
▁bittet	-11.9857
▁bißch	-11.9857
▁bl	-11.9857
▁boss	-11.9857
▁brennt	-11.9857
▁brunn	-11.9857
▁bündel	-11.9857
▁carnegi	-11.9857
▁costa	-11.9857
▁darwins	-11.9857
▁dean	-11.9857
▁dekad	-11.9857
▁diagnostizier	-11.9857
▁differenz	-11.9857
▁drei-	-11.9857
▁dreißig	-11.9857
▁dvd	-11.9857
▁dün	-11.9857
▁einkommens	-11.9857
▁einwohnern	-11.9857
▁einzustell	-11.9857
▁ekel	-11.9857
▁empfindet	-11.9857
▁empirisch	-11.9857
▁entgegengesetzt	-11.9857
▁enthüllung	-11.9857
▁entspann	-11.9857
▁enttäuschung	-11.9857
▁erdacht	-11.9857
▁erkrank	-11.9857
▁erlangt	-11.9857
▁erschöpft	-11.9857
▁ersparniss	-11.9857
▁etag	-11.9857
▁everglad	-11.9857
▁explizit	-11.9857
▁feuert	-11.9857
▁flugbahn	-11.9857
▁food	-11.9857
▁forderung	-11.9857
▁fortsetz	-11.9857
▁führungsperson	-11.9857
▁gegebenheit	-11.9857
▁geheiratet	-11.9857
▁genuss	-11.9857
▁gestimmt	-11.9857
▁gestresst	-11.9857
▁gesundheitlich	-11.9857
▁gewusst	-11.9857
▁gewöhn	-11.9857
▁glaubens	-11.9857
▁gleit	-11.9857
▁grac	-11.9857
▁grafisch	-11.9857
▁ground	-11.9857
▁großteils	-11.9857
▁grundgedank	-11.9857
▁gründung	-11.9857
▁hawking	-11.9857
▁he	-11.9857
▁herzens	-11.9857
▁highschool	-11.9857
▁hilfsorganisation	-11.9857
▁hinschau	-11.9857
▁hirnregion	-11.9857
▁hungersnot	-11.9857
▁härtest	-11.9857
▁hättest	-11.9857
▁imk	-11.9857
▁immernoch	-11.9857
▁ineffizient	-11.9857
▁intensivstation	-11.9857
▁intim	-11.9857
▁ipad	-11.9857
▁kartoffeln	-11.9857
▁kat	-11.9857
▁keineswegs	-11.9857
▁kelly	-11.9857
▁kennengelernt	-11.9857
▁kiribati	-11.9857
▁klarer	-11.9857
▁klopf	-11.9857
▁kontaktiert	-11.9857
▁köd	-11.9857
▁kühlt	-11.9857
▁lastwag	-11.9857
▁legitim	-11.9857
▁linksliberal	-11.9857
▁loszuwerd	-11.9857
▁metaphorisch	-11.9857
▁mexico	-11.9857
▁mexikanisch	-11.9857
▁mischt	-11.9857
▁miss	-11.9857
▁mitgliedern	-11.9857
▁murray	-11.9857
▁muttersprach	-11.9857
▁märch	-11.9857
▁nachmittags	-11.9857
▁nationalstaat	-11.9857
▁naturkatastroph	-11.9857
▁naturschutz	-11.9857
▁nektar	-11.9857
▁netzwerks	-11.9857
▁neugeboren	-11.9857
▁nirgends	-11.9857
▁palästinensisch	-11.9857
▁parkplätz	-11.9857
▁passag	-11.9857
▁pentagon	-11.9857
▁physiologisch	-11.9857
▁pool	-11.9857
▁praktizier	-11.9857
▁princeton	-11.9857
▁produktiver	-11.9857
▁protokoll	-11.9857
▁präzision	-11.9857
▁quantitativ	-11.9857
▁radioaktiv	-11.9857
▁rechteck	-11.9857
▁regenwass	-11.9857
▁repariert	-11.9857
▁resultiert	-11.9857
▁rhythm	-11.9857
▁roboters	-11.9857
▁robotisch	-11.9857
▁ruiniert	-11.9857
▁salat	-11.9857
▁sch	-11.9857
▁schlamm	-11.9857
▁schneller	-11.9857
▁schrank	-11.9857
▁schriftart	-11.9857
▁schweiß	-11.9857
▁sebastian	-11.9857
▁sediment	-11.9857
▁seins	-11.9857
▁selbstbewusstsein	-11.9857
▁selbstwertgefühl	-11.9857
▁senkt	-11.9857
▁simon	-11.9857
▁society	-11.9857
▁spann	-11.9857
▁speer	-11.9857
▁spendet	-11.9857
▁spielplatz	-11.9857
▁standardisiert	-11.9857
▁sterberat	-11.9857
▁stereotyp	-11.9857
▁strang	-11.9857
▁sydney	-11.9857
▁säng	-11.9857
▁tagtäglich	-11.9857
▁taiwan	-11.9857
▁teilnehmern	-11.9857
▁tierärzt	-11.9857
▁titanic	-11.9857
▁todesstraf	-11.9857
▁tourist	-11.9857
▁treibend	-11.9857
▁träumt	-11.9857
▁tuch	-11.9857
▁umgebend	-11.9857
▁umlaufbahn	-11.9857
▁umweltfreundlich	-11.9857
▁umweltverschmutzung	-11.9857
▁unbequem	-11.9857
▁ungemein	-11.9857
▁unsterblichkeit	-11.9857
▁unterschätz	-11.9857
▁unterzeichnet	-11.9857
▁unwichtig	-11.9857
▁unzureichend	-11.9857
▁venezuela	-11.9857
▁verdrahtet	-11.9857
▁verdreht	-11.9857
▁verlieb	-11.9857
▁verlockend	-11.9857
▁vernachlässigt	-11.9857
▁vernicht	-11.9857
▁verpackt	-11.9857
▁verrichtet	-11.9857
▁verschrieben	-11.9857
▁versuchsperson	-11.9857
▁verteidigt	-11.9857
▁vielfach	-11.9857
▁viereinhalb	-11.9857
▁vorfall	-11.9857
▁vorschein	-11.9857
▁wars	-11.9857
▁weihnachtsmann	-11.9857
▁weiterentwicklung	-11.9857
▁weitreichend	-11.9857
▁würdet	-11.9857
▁zerleg	-11.9857
▁zerstörerisch	-11.9857
▁zimbabw	-11.9857
▁zipcar	-11.9857
▁zunimmt	-11.9857
▁zusammengearbeitet	-11.9857
▁zusammenhalt	-11.9857
▁zuversichtlich	-11.9857
▁übertragbar	-11.9857
▁überzogen	-11.9857
▁üppig	-11.9857
▁15.000	-12.0322
▁1976	-12.0322
▁1982	-12.0322
▁1985	-12.0322
▁4.	-12.0322
▁58	-12.0322
▁abgespielt	-12.0322
▁ableit	-12.0322
▁absatz	-12.0322
▁abstammung	-12.0322
▁abu	-12.0322
▁abzuhalt	-12.0322
▁ali	-12.0322
▁analytisch	-12.0322
▁anfrag	-12.0322
▁angewohnheit	-12.0322
▁angreift	-12.0322
▁anguck	-12.0322
▁annäherung	-12.0322
▁anreg	-12.0322
▁apothek	-12.0322
▁applikation	-12.0322
▁arbeitskraft	-12.0322
▁arteri	-12.0322
▁asthma	-12.0322
▁aufgefordert	-12.0322
▁aufrichtig	-12.0322
▁aufzuhalt	-12.0322
▁ausdehnt	-12.0322
▁ausführung	-12.0322
▁ausgang	-12.0322
▁ausweit	-12.0322
▁auswertung	-12.0322
▁auszubild	-12.0322
▁back	-12.0322
▁baustell	-12.0322
▁bauteil	-12.0322
▁bedeutender	-12.0322
▁befürwort	-12.0322
▁berti	-12.0322
▁berufung	-12.0322
▁besproch	-12.0322
▁bienenstöck	-12.0322
▁bindet	-12.0322
▁biss	-12.0322
▁budgets	-12.0322
▁cnn	-12.0322
▁company	-12.0322
▁datei	-12.0322
▁demnach	-12.0322
▁desast	-12.0322
▁dj	-12.0322
▁dna-origami	-12.0322
▁durchgemacht	-12.0322
▁durchsuch	-12.0322
▁edward	-12.0322
▁einbezog	-12.0322
▁einsparung	-12.0322
▁eintritt	-12.0322
▁einzubezieh	-12.0322
▁entnahm	-12.0322
▁erhitzt	-12.0322
▁erobert	-12.0322
▁erreichbar	-12.0322
▁ertrink	-12.0322
▁erwacht	-12.0322
▁erwärmt	-12.0322
▁etablier	-12.0322
▁europä	-12.0322
▁fabelhaft	-12.0322
▁favelas	-12.0322
▁floh	-12.0322
▁flüchtlingslag	-12.0322
▁freundlichkeit	-12.0322
▁gehirnaktivität	-12.0322
▁geldgeb	-12.0322
▁gespür	-12.0322
▁gestand	-12.0322
▁gewaltsam	-12.0322
▁gezüchtet	-12.0322
▁gier	-12.0322
▁gleichmäßig	-12.0322
▁glock	-12.0322
▁gläsern	-12.0322
▁gläubig	-12.0322
▁grenzenlos	-12.0322
▁guardian	-12.0322
▁guatemala	-12.0322
▁haft	-12.0322
▁hartnäckig	-12.0322
▁heißer	-12.0322
▁hervorgebracht	-12.0322
▁herzschlag	-12.0322
▁hinbekomm	-12.0322
▁hosentasch	-12.0322
▁human	-12.0322
▁häuptling	-12.0322
▁impf	-12.0322
▁implantat	-12.0322
▁intimität	-12.0322
▁isolier	-12.0322
▁ivan	-12.0322
▁jerry	-12.0322
▁jersey	-12.0322
▁klebeband	-12.0322
▁klicks	-12.0322
▁knall	-12.0322
▁kooperativ	-12.0322
▁kuliss	-12.0322
▁kumpel	-12.0322
▁kunstform	-12.0322
▁käuf	-12.0322
▁köstlich	-12.0322
▁lady	-12.0322
▁lakota	-12.0322
▁lebensspann	-12.0322
▁leds	-12.0322
▁leistungsstark	-12.0322
▁lkws	-12.0322
▁löchern	-12.0322
▁marathon	-12.0322
▁margaret	-12.0322
▁medical	-12.0322
▁meditation	-12.0322
▁mehrfach	-12.0322
▁meisterwerk	-12.0322
▁menschenleb	-12.0322
▁menschheitsgeschicht	-12.0322
▁migrän	-12.0322
▁millisekund	-12.0322
▁mithalt	-12.0322
▁mittelalt	-12.0322
▁mittelklass	-12.0322
▁mobilisier	-12.0322
▁motiv	-12.0322
▁mächt	-12.0322
▁nahtlos	-12.0322
▁neanderthal	-12.0322
▁o.k.	-12.0322
▁oktopus	-12.0322
▁ostens	-12.0322
▁peng	-12.0322
▁penis	-12.0322
▁pepsi	-12.0322
▁phantom-arm	-12.0322
▁pistol	-12.0322
▁prostatakrebs	-12.0322
▁rang	-12.0322
▁regier	-12.0322
▁regiert	-12.0322
▁reguliert	-12.0322
▁reparatur	-12.0322
▁risd	-12.0322
▁risikofaktor	-12.0322
▁rog	-12.0322
▁satt	-12.0322
▁schand	-12.0322
▁schilder	-12.0322
▁schmilzt	-12.0322
▁schräg	-12.0322
▁seg	-12.0322
▁seriös	-12.0322
▁skelettmuskeln	-12.0322
▁snowd	-12.0322
▁sowjetisch	-12.0322
▁spiegeln	-12.0322
▁spor	-12.0322
▁sri	-12.0322
▁stapeln	-12.0322
▁stressig	-12.0322
▁studentin	-12.0322
▁stückch	-12.0322
▁taxi	-12.0322
▁teich	-12.0322
▁triumph	-12.0322
▁umfangreich	-12.0322
▁ungleichgewicht	-12.0322
▁unvorhersehbar	-12.0322
▁urheberrecht	-12.0322
▁verabreicht	-12.0322
▁verbannt	-12.0322
▁verdreifacht	-12.0322
▁verdrängt	-12.0322
▁verhaltensmust	-12.0322
▁verlässlich	-12.0322
▁vernichtet	-12.0322
▁verschlechtert	-12.0322
▁verschob	-12.0322
▁verschreib	-12.0322
▁versend	-12.0322
▁versichert	-12.0322
▁verwaltet	-12.0322
▁viktorianisch	-12.0322
▁violett	-12.0322
▁vorsicht	-12.0322
▁vorübergehend	-12.0322
▁weiterentwickeln	-12.0322
▁werdend	-12.0322
▁whit	-12.0322
▁wilson	-12.0322
▁wöchentlich	-12.0322
▁wölf	-12.0322
▁yv	-12.0322
▁zack	-12.0322
▁zauber	-12.0322
▁zerbrech	-12.0322
▁zugehörigkeit	-12.0322
▁zugenomm	-12.0322
▁zurückgeht	-12.0322
▁zweijährig	-12.0322
▁ängstlich	-12.0322
▁12.000	-12.081
▁abheb	-12.081
▁absorbiert	-12.081
▁abstimmung	-12.081
▁abzuschließ	-12.081
▁aims	-12.081
▁akkord	-12.081
▁akut	-12.081
▁allerbest	-12.081
▁ampel	-12.081
▁anfass	-12.081
▁angeklagt	-12.081
▁angetan	-12.081
▁animiert	-12.081
▁anstreng	-12.081
▁ar	-12.081
▁arabi	-12.081
▁arbeitern	-12.081
▁arizona	-12.081
▁armstrong	-12.081
▁assoziation	-12.081
▁atomwaff	-12.081
▁aufbewahrt	-12.081
▁aufteil	-12.081
▁aufwacht	-12.081
▁ausdehnung	-12.081
▁aushalt	-12.081
▁aussetz	-12.081
▁ausweg	-12.081
▁automobil	-12.081
▁bart	-12.081
▁basenpaar	-12.081
▁beabsichtigt	-12.081
▁bedacht	-12.081
▁bedrohlich	-12.081
▁beeinträchtigt	-12.081
▁befördern	-12.081
▁befördert	-12.081
▁bekanntlich	-12.081
▁bereichern	-12.081
▁bereitgestellt	-12.081
▁beschuldigt	-12.081
▁bestreit	-12.081
▁bevölkerungswachstum	-12.081
▁biolumineszenz	-12.081
▁bla	-12.081
▁bleistift	-12.081
▁boom	-12.081
▁brand	-12.081
▁brigad	-12.081
▁bunk	-12.081
▁böd	-12.081
▁c.	-12.081
▁caltech	-12.081
▁camp	-12.081
▁cheryl	-12.081
▁clark	-12.081
▁daheim	-12.081
▁dav	-12.081
▁deal	-12.081
▁deckt	-12.081
▁demokratischer	-12.081
▁dortig	-12.081
▁drehung	-12.081
▁druckt	-12.081
▁durchdacht	-12.081
▁ehrgeiz	-12.081
▁eigeninteress	-12.081
▁einbind	-12.081
▁eindring	-12.081
▁eingebund	-12.081
▁eingefang	-12.081
▁einkaufszentrum	-12.081
▁einzubring	-12.081
▁emails	-12.081
▁empfehlung	-12.081
▁entwirft	-12.081
▁erfahren	-12.081
▁erfindet	-12.081
▁erläutern	-12.081
▁ermitteln	-12.081
▁erschüttert	-12.081
▁erwisch	-12.081
▁etlich	-12.081
▁evan	-12.081
▁experiments	-12.081
▁fassad	-12.081
▁fernbedienung	-12.081
▁festival	-12.081
▁festleg	-12.081
▁fluggerät	-12.081
▁flüg	-12.081
▁furchterregend	-12.081
▁ganzheitlich	-12.081
▁geboten	-12.081
▁gefährd	-12.081
▁gehandelt	-12.081
▁geheilt	-12.081
▁gehirnzell	-12.081
▁gekleidet	-12.081
▁geografi	-12.081
▁geordnet	-12.081
▁gesang	-12.081
▁geschehniss	-12.081
▁geschult	-12.081
▁gespalten	-12.081
▁gewässern	-12.081
▁giraff	-12.081
▁gruppierung	-12.081
▁gäst	-12.081
▁handschuh	-12.081
▁helligkeit	-12.081
▁heroin	-12.081
▁higgs-teilch	-12.081
▁hinausgeht	-12.081
▁hinkrieg	-12.081
▁holländisch	-12.081
▁ideo	-12.081
▁imstand	-12.081
▁indus-schrift	-12.081
▁intel	-12.081
▁invasion	-12.081
▁jl	-12.081
▁kakerlak	-12.081
▁karibik	-12.081
▁kaulquapp	-12.081
▁khan	-12.081
▁kief	-12.081
▁klon	-12.081
▁koma	-12.081
▁komposition	-12.081
▁konsens	-12.081
▁konzipiert	-12.081
▁korridor	-12.081
▁kosmologi	-12.081
▁kyoto	-12.081
▁kühn	-12.081
▁lak	-12.081
▁lebensstandard	-12.081
▁liby	-12.081
▁lokalisier	-12.081
▁luftfahrt	-12.081
▁lädt	-12.081
▁malediv	-12.081
▁markierung	-12.081
▁marschiert	-12.081
▁medienunternehm	-12.081
▁menschenaff	-12.081
▁mitzumach	-12.081
▁mitzuteil	-12.081
▁monats	-12.081
▁motorrad	-12.081
▁musikern	-12.081
▁mutant	-12.081
▁mystisch	-12.081
▁nachschlag	-12.081
▁nachvollzieh	-12.081
▁nathan	-12.081
▁neunjährig	-12.081
▁nimmst	-12.081
▁nobelpreisträg	-12.081
▁norman	-12.081
▁norwegisch	-12.081
▁nützlicher	-12.081
▁obst	-12.081
▁orgasmus	-12.081
▁pazifisch	-12.081
▁phantasi	-12.081
▁phtalat	-12.081
▁poetisch	-12.081
▁por	-12.081
▁portland	-12.081
▁pow	-12.081
▁predig	-12.081
▁prinzipiell	-12.081
▁privilegiert	-12.081
▁prostituiert	-12.081
▁proton	-12.081
▁puls	-12.081
▁putz	-12.081
▁puzzl	-12.081
▁quad	-12.081
▁ran	-12.081
▁rapid	-12.081
▁rasend	-12.081
▁rau	-12.081
▁redakteur	-12.081
▁referenz	-12.081
▁replikator	-12.081
▁replizier	-12.081
▁rg	-12.081
▁rhyth-matik	-12.081
▁riesenhai	-12.081
▁rng	-12.081
▁robb	-12.081
▁ron	-12.081
▁rutscht	-12.081
▁scheidung	-12.081
▁schema	-12.081
▁schlaganfall	-12.081
▁schliess	-12.081
▁schrumpf	-12.081
▁schwerwiegend	-12.081
▁sehkraft	-12.081
▁set	-12.081
▁siedlung	-12.081
▁sollst	-12.081
▁sonnig	-12.081
▁soziolog	-12.081
▁sphär	-12.081
▁sponsor	-12.081
▁sprichwörtlich	-12.081
▁stabilisier	-12.081
▁stacheln	-12.081
▁steril	-12.081
▁stigma	-12.081
▁suchmaschin	-12.081
▁supraleit	-12.081
▁südasi	-12.081
▁tabu	-12.081
▁tedst	-12.081
▁teilung	-12.081
▁terrain	-12.081
▁therapeut	-12.081
▁titus	-12.081
▁toyota	-12.081
▁tr	-12.081
▁transaktion	-12.081
▁tuberkulos	-12.081
▁tunesi	-12.081
▁ultraschall	-12.081
▁umfassender	-12.081
▁umstand	-12.081
▁umwerfend	-12.081
▁unsterblich	-12.081
▁unterhaltsam	-12.081
▁unterschiedlichst	-12.081
▁vegetation	-12.081
▁venedig	-12.081
▁veranschaulich	-12.081
▁verbrennung	-12.081
▁verdräng	-12.081
▁verleiht	-12.081
▁vermeidbar	-12.081
▁verschmutzt	-12.081
▁versicher	-12.081
▁versprach	-12.081
▁verspür	-12.081
▁verändernd	-12.081
▁vinci	-12.081
▁vorgab	-12.081
▁vorig	-12.081
▁vorstand	-12.081
▁wais	-12.081
▁wegwerf	-12.081
▁weitergeht	-12.081
▁weitest	-12.081
▁weltanschauung	-12.081
▁wertlos	-12.081
▁wesp	-12.081
▁widersprech	-12.081
▁wiederherstellung	-12.081
▁wiederseh	-12.081
▁williams	-12.081
▁windows	-12.081
▁wirbel	-12.081
▁wundert	-12.081
▁yal	-12.081
▁zeitraff	-12.081
▁zensur	-12.081
▁zielt	-12.081
▁zittern	-12.081
▁zivilist	-12.081
▁zurückgreif	-12.081
▁zusammenbringt	-12.081
▁zuversicht	-12.081
▁zuwend	-12.081
▁zwei-	-12.081
▁äquator	-12.081
▁äußerung	-12.081
▁österreich	-12.081
▁überflutet	-12.081
▁übermäßig	-12.081
▁überschrift	-12.081
▁1990ern	-12.1323
▁2.0	-12.1323
▁3,5	-12.1323
▁300.000	-12.1323
▁46	-12.1323
▁64	-12.1323
▁abertausend	-12.1323
▁abgenomm	-12.1323
▁ablehnung	-12.1323
▁abläuf	-12.1323
▁absolviert	-12.1323
▁agiert	-12.1323
▁aminosäur	-12.1323
▁anbring	-12.1323
▁andy	-12.1323
▁angehört	-12.1323
▁anmerkung	-12.1323
▁anschein	-12.1323
▁ansprechend	-12.1323
▁arbeitgeb	-12.1323
▁arzneimittel	-12.1323
▁aufbring	-12.1323
▁auffällig	-12.1323
▁aufheb	-12.1323
▁aufwärts	-12.1323
▁ausbeutung	-12.1323
▁auszurott	-12.1323
▁av	-12.1323
▁barry	-12.1323
▁bearbeitung	-12.1323
▁beeinträchtig	-12.1323
▁begrenz	-12.1323
▁begründung	-12.1323
▁beiträg	-12.1323
▁beizutrag	-12.1323
▁beleucht	-12.1323
▁bestrafung	-12.1323
▁beträchtlich	-12.1323
▁bezeichnung	-12.1323
▁bienenstock	-12.1323
▁blättern	-12.1323
▁bono	-12.1323
▁breiter	-12.1323
▁bürgersteig	-12.1323
▁cd	-12.1323
▁christus	-12.1323
▁colorado	-12.1323
▁dagewesen	-12.1323
▁darfur	-12.1323
▁demütig	-12.1323
▁denkend	-12.1323
▁diamant	-12.1323
▁dienstag	-12.1323
▁diktatur	-12.1323
▁direkter	-12.1323
▁dring	-12.1323
▁dubai	-12.1323
▁durchgehend	-12.1323
▁durchläuft	-12.1323
▁durchmach	-12.1323
▁dächern	-12.1323
▁dänisch	-12.1323
▁einfließ	-12.1323
▁einigermaß	-12.1323
▁einsteig	-12.1323
▁einsätz	-12.1323
▁eintauch	-12.1323
▁einzunehm	-12.1323
▁eisern	-12.1323
▁enceladus	-12.1323
▁enthüllt	-12.1323
▁entwickelnd	-12.1323
▁entwicklungsland	-12.1323
▁erleuchtet	-12.1323
▁ersatz	-12.1323
▁erwidert	-12.1323
▁eröffnung	-12.1323
▁familienplanung	-12.1323
▁fei	-12.1323
▁fernsehsendung	-12.1323
▁festland	-12.1323
▁feucht	-12.1323
▁flow	-12.1323
▁flur	-12.1323
▁formulier	-12.1323
▁fragestellung	-12.1323
▁fruchtbar	-12.1323
▁frühjahr	-12.1323
▁fünfjährig	-12.1323
▁gefasst	-12.1323
▁gefoltert	-12.1323
▁gefress	-12.1323
▁gegeneinand	-12.1323
▁gehoben	-12.1323
▁gekämpft	-12.1323
▁genesung	-12.1323
▁geprüft	-12.1323
▁gezählt	-12.1323
▁grafikdesign	-12.1323
▁graphik	-12.1323
▁grasland	-12.1323
▁großzügigkeit	-12.1323
▁grub	-12.1323
▁gäns	-12.1323
▁happy	-12.1323
▁hautfarb	-12.1323
▁heikl	-12.1323
▁heilt	-12.1323
▁hervorgerufen	-12.1323
▁hervorruft	-12.1323
▁high-tech	-12.1323
▁hinsetz	-12.1323
▁historik	-12.1323
▁hospital	-12.1323
▁hubschraub	-12.1323
▁hältst	-12.1323
▁hölzern	-12.1323
▁hüpf	-12.1323
▁implantiert	-12.1323
▁implikation	-12.1323
▁ingenieurwissenschaft	-12.1323
▁inhaltsstoff	-12.1323
▁innehalt	-12.1323
▁instabilität	-12.1323
▁insulinresistenz	-12.1323
▁jackson	-12.1323
▁jahrestag	-12.1323
▁jahrzehnts	-12.1323
▁jeans	-12.1323
▁joel	-12.1323
▁jonglier	-12.1323
▁julian	-12.1323
▁klarstell	-12.1323
▁klebrig	-12.1323
▁klimakris	-12.1323
▁klingelt	-12.1323
▁kodier	-12.1323
▁konnektivität	-12.1323
▁koordiniert	-12.1323
▁kritisier	-12.1323
▁krümmung	-12.1323
▁ks	-12.1323
▁körpergröß	-12.1323
▁langlebig	-12.1323
▁lasch	-12.1323
▁laufbahn	-12.1323
▁lebenslauf	-12.1323
▁lebenszyklus	-12.1323
▁lernprozess	-12.1323
▁linux	-12.1323
▁lose	-12.1323
▁lösbar	-12.1323
▁marsch	-12.1323
▁massenvernichtungswaff	-12.1323
▁medienlandschaft	-12.1323
▁meeresgrund	-12.1323
▁mittel-welt	-12.1323
▁modelliert	-12.1323
▁monitor	-12.1323
▁motors	-12.1323
▁muß	-12.1323
▁nevada	-12.1323
▁noah	-12.1323
▁nordafrika	-12.1323
▁norden-bombenzielgerät	-12.1323
▁nummern	-12.1323
▁nutzpflanz	-12.1323
▁objekts	-12.1323
▁ostasi	-12.1323
▁panbanisha	-12.1323
▁partitur	-12.1323
▁ph	-12.1323
▁phoenixinseln	-12.1323
▁photon	-12.1323
▁photosynthes	-12.1323
▁pixel	-12.1323
▁platzt	-12.1323
▁portion	-12.1323
▁portraits	-12.1323
▁postkart	-12.1323
▁powerpoint	-12.1323
▁pro-kopf-einkomm	-12.1323
▁problemlösung	-12.1323
▁prävention	-12.1323
▁rabbi	-12.1323
▁rach	-12.1323
▁radiowell	-12.1323
▁rechnerisch	-12.1323
▁recycelt	-12.1323
▁redest	-12.1323
▁riesengroß	-12.1323
▁rsw	-12.1323
▁sauri	-12.1323
▁schach	-12.1323
▁schadet	-12.1323
▁schleppt	-12.1323
▁schluck	-12.1323
▁schriftlich	-12.1323
▁schädigung	-12.1323
▁schüttelt	-12.1323
▁sitzend	-12.1323
▁sock	-12.1323
▁sofa	-12.1323
▁sonnenschein	-12.1323
▁sonstwo	-12.1323
▁sony	-12.1323
▁spermi	-12.1323
▁spieltheori	-12.1323
▁spitznam	-12.1323
▁sr	-12.1323
▁stau	-12.1323
▁steckdos	-12.1323
▁straßenrand	-12.1323
▁stunts	-12.1323
▁stöck	-12.1323
▁stößt	-12.1323
▁stünd	-12.1323
▁subvention	-12.1323
▁sun	-12.1323
▁supercomput	-12.1323
▁suspendiert	-12.1323
▁symbolisiert	-12.1323
▁südwest	-12.1323
▁taktik	-12.1323
▁technolog	-12.1323
▁ted-vortrag	-12.1323
▁teheran	-12.1323
▁teilgenomm	-12.1323
▁teszl	-12.1323
▁teuerst	-12.1323
▁teufelskreis	-12.1323
▁trad	-12.1323
▁traurigkeit	-12.1323
▁trommel	-12.1323
▁tweet	-12.1323
▁tweets	-12.1323
▁unfassbar	-12.1323
▁unordnung	-12.1323
▁unterfang	-12.1323
▁untergrund	-12.1323
▁unterhielt	-12.1323
▁unterm	-12.1323
▁ununterbrochen	-12.1323
▁unverändert	-12.1323
▁urin	-12.1323
▁veranstaltet	-12.1323
▁verdeutlicht	-12.1323
▁vereinbar	-12.1323
▁verfall	-12.1323
▁verging	-12.1323
▁verlängert	-12.1323
▁verrät	-12.1323
▁verstopft	-12.1323
▁visualisier	-12.1323
▁vorantreib	-12.1323
▁vorgenomm	-12.1323
▁vorgibt	-12.1323
▁vorhang	-12.1323
▁vorrichtung	-12.1323
▁vorrät	-12.1323
▁weltwirtschaft	-12.1323
▁wendung	-12.1323
▁wertvollst	-12.1323
▁westeuropa	-12.1323
▁widersprüch	-12.1323
▁widmet	-12.1323
▁wiederherstell	-12.1323
▁wäsch	-12.1323
▁xl	-12.1323
▁zaun	-12.1323
▁zerlegt	-12.1323
▁zertifiziert	-12.1323
▁zig	-12.1323
▁zittert	-12.1323
▁zurückgekehrt	-12.1323
▁zurückkam	-12.1323
▁zurückzieh	-12.1323
▁zurückzukomm	-12.1323
▁zwingt	-12.1323
▁äußert	-12.1323
▁überträgt	-12.1323
▁15-jährig	-12.1863
▁1500	-12.1863
▁1957	-12.1863
▁1965	-12.1863
▁1983	-12.1863
▁1988	-12.1863
▁2013	-12.1863
▁50.	-12.1863
▁57	-12.1863
▁83	-12.1863
▁abhält	-12.1863
▁absorbier	-12.1863
▁amputiert	-12.1863
▁angegang	-12.1863
▁angehörig	-12.1863
▁anhaltspunkt	-12.1863
▁annimmt	-12.1863
▁anrief	-12.1863
▁anschluss	-12.1863
▁anzuleg	-12.1863
▁arbeitsstell	-12.1863
▁aufgeführt	-12.1863
▁aufgestand	-12.1863
▁aufgetaucht	-12.1863
▁aufzusteh	-12.1863
▁aufzustell	-12.1863
▁aura	-12.1863
▁ausblick	-12.1863
▁ausdrücklich	-12.1863
▁ausflug	-12.1863
▁ausführlich	-12.1863
▁ausgeschaltet	-12.1863
▁ausgewachsen	-12.1863
▁ausnutz	-12.1863
▁ausreicht	-12.1863
▁ausstell	-12.1863
▁ausstoß	-12.1863
▁australisch	-12.1863
▁auszeit	-12.1863
▁balkon	-12.1863
▁bas	-12.1863
▁bauchspeicheldrüsenkrebs	-12.1863
▁bedeutungslos	-12.1863
▁beeindruck	-12.1863
▁beethov	-12.1863
▁befriedig	-12.1863
▁begabt	-12.1863
▁begabung	-12.1863
▁beibehalt	-12.1863
▁beieinand	-12.1863
▁benachteiligt	-12.1863
▁bequ	-12.1863
▁bestrebung	-12.1863
▁bestätigung	-12.1863
▁beurteilt	-12.1863
▁bevölkert	-12.1863
▁bewohnt	-12.1863
▁black	-12.1863
▁brauchst	-12.1863
▁brothers	-12.1863
▁brustkorb	-12.1863
▁buckelwal	-12.1863
▁bäckerei	-12.1863
▁bücherei	-12.1863
▁california	-12.1863
▁cameron	-12.1863
▁carol	-12.1863
▁cassini	-12.1863
▁cc	-12.1863
▁child	-12.1863
▁chr.	-12.1863
▁cia	-12.1863
▁darfst	-12.1863
▁darpa	-12.1863
▁datum	-12.1863
▁dementsprechend	-12.1863
▁dezentralisiert	-12.1863
▁diesbezüglich	-12.1863
▁diskriminierung	-12.1863
▁dokumentation	-12.1863
▁dozent	-12.1863
▁dreijährig	-12.1863
▁durchlief	-12.1863
▁durchsichtig	-12.1863
▁dylan	-12.1863
▁economist	-12.1863
▁einschätz	-12.1863
▁einsteins	-12.1863
▁eiweiß	-12.1863
▁eliminier	-12.1863
▁email	-12.1863
▁enkelkind	-12.1863
▁entschlossenheit	-12.1863
▁entsetzt	-12.1863
▁entstehend	-12.1863
▁ergriff	-12.1863
▁erhebt	-12.1863
▁erhebung	-12.1863
▁erholung	-12.1863
▁erkennbar	-12.1863
▁erlass	-12.1863
▁erotisch	-12.1863
▁erregung	-12.1863
▁erstklassig	-12.1863
▁erweckt	-12.1863
▁erweis	-12.1863
▁essbar	-12.1863
▁europas	-12.1863
▁existentiell	-12.1863
▁fahrräd	-12.1863
▁faktisch	-12.1863
▁fans	-12.1863
▁faust	-12.1863
▁feuerwehr	-12.1863
▁fischfang	-12.1863
▁flughäf	-12.1863
▁fox	-12.1863
▁foxo	-12.1863
▁frauenrecht	-12.1863
▁funktional	-12.1863
▁fuss	-12.1863
▁fußabdruck	-12.1863
▁fäkali	-12.1863
▁fälschung	-12.1863
▁förmlich	-12.1863
▁führerschein	-12.1863
▁gefährt	-12.1863
▁geisteskrankheit	-12.1863
▁gejagt	-12.1863
▁gelangweilt	-12.1863
▁gemütlich	-12.1863
▁genehmigt	-12.1863
▁gesamtbild	-12.1863
▁gesetzgebung	-12.1863
▁gespürt	-12.1863
▁gesteh	-12.1863
▁gestärkt	-12.1863
▁gestützt	-12.1863
▁gesundheitspfleg	-12.1863
▁gesundheitswesens	-12.1863
▁geübt	-12.1863
▁gitarr	-12.1863
▁giussani	-12.1863
▁glass	-12.1863
▁glückskeks	-12.1863
▁gordon	-12.1863
▁gremium	-12.1863
▁hauptgrund	-12.1863
▁hebräisch	-12.1863
▁heimatland	-12.1863
▁herausfordernd	-12.1863
▁herausgeb	-12.1863
▁hintern	-12.1863
▁hinüb	-12.1863
▁hochauflösend	-12.1863
▁hochlad	-12.1863
▁hudson	-12.1863
▁hurrikan	-12.1863
▁hygien	-12.1863
▁imitation	-12.1863
▁indikator	-12.1863
▁infektionskrankheit	-12.1863
▁ipods	-12.1863
▁juristisch	-12.1863
▁juwel	-12.1863
▁kahl	-12.1863
▁kaninch	-12.1863
▁knotenpunkt	-12.1863
▁knüpf	-12.1863
▁konfiguration	-12.1863
▁konfrontier	-12.1863
▁konkurrent	-12.1863
▁koordination	-12.1863
▁krat	-12.1863
▁krawatt	-12.1863
▁kreation	-12.1863
▁krebsart	-12.1863
▁kreditkart	-12.1863
▁kreid	-12.1863
▁labyrinth	-12.1863
▁leichtigkeit	-12.1863
▁leugn	-12.1863
▁luftverschmutzung	-12.1863
▁lungenkrebs	-12.1863
▁mahmoud	-12.1863
▁manifestation	-12.1863
▁manuskript	-12.1863
▁meisterschaft	-12.1863
▁mild	-12.1863
▁mutiert	-12.1863
▁nachgeh	-12.1863
▁nachgewies	-12.1863
▁navigier	-12.1863
▁neandertal	-12.1863
▁neil	-12.1863
▁niederlag	-12.1863
▁niederländisch	-12.1863
▁nm	-12.1863
▁nütz	-12.1863
▁oberhalb	-12.1863
▁onkolog	-12.1863
▁optimist	-12.1863
▁oscar	-12.1863
▁paulo	-12.1863
▁pflegt	-12.1863
▁photoshop	-12.1863
▁praktik	-12.1863
▁quadratisch	-12.1863
▁rachel	-12.1863
▁raumfahrt	-12.1863
▁raumstation	-12.1863
▁reagan	-12.1863
▁rebell	-12.1863
▁rechtssystem	-12.1863
▁reformier	-12.1863
▁regisseur	-12.1863
▁reinigt	-12.1863
▁reit	-12.1863
▁rekrutiert	-12.1863
▁respektvoll	-12.1863
▁roch	-12.1863
▁rudern	-12.1863
▁ruhestand	-12.1863
▁rutsch	-12.1863
▁rückzug	-12.1863
▁samstag	-12.1863
▁sars	-12.1863
▁sass	-12.1863
▁schar	-12.1863
▁schlei	-12.1863
▁schlüss	-12.1863
▁schmuck	-12.1863
▁schnurrbart	-12.1863
▁schottisch	-12.1863
▁schottland	-12.1863
▁schrein	-12.1863
▁schublad	-12.1863
▁schwing	-12.1863
▁schwitz	-12.1863
▁schüssel	-12.1863
▁selbstbewusst	-12.1863
▁seltsamerweis	-12.1863
▁senator	-12.1863
▁silb	-12.1863
▁skeptik	-12.1863
▁sook	-12.1863
▁sorry	-12.1863
▁speis	-12.1863
▁sprich	-12.1863
▁stadion	-12.1863
▁stammbaum	-12.1863
▁stech	-12.1863
▁steigert	-12.1863
▁stellung	-12.1863
▁stop	-12.1863
▁stratosphär	-12.1863
▁strömung	-12.1863
▁stumm	-12.1863
▁supermärkt	-12.1863
▁synästhesi	-12.1863
▁tattoo	-12.1863
▁telefonnumm	-12.1863
▁tennesse	-12.1863
▁testosteron	-12.1863
▁thermisch	-12.1863
▁tintenfisch	-12.1863
▁transition	-12.1863
▁trauma	-12.1863
▁trocknet	-12.1863
▁umarm	-12.1863
▁undenkbar	-12.1863
▁ungeduldig	-12.1863
▁ungewissheit	-12.1863
▁unterschreib	-12.1863
▁unterschätzt	-12.1863
▁urbanisierung	-12.1863
▁usd	-12.1863
▁verantwortlichkeit	-12.1863
▁verbrennt	-12.1863
▁vergesst	-12.1863
▁vergift	-12.1863
▁vergiftet	-12.1863
▁vergrab	-12.1863
▁verkabelt	-12.1863
▁verkleinern	-12.1863
▁verlängern	-12.1863
▁vermarkt	-12.1863
▁vermiss	-12.1863
▁verschloss	-12.1863
▁verschmutz	-12.1863
▁verschwörung	-12.1863
▁verspricht	-12.1863
▁verwechseln	-12.1863
▁verwirrung	-12.1863
▁verzeih	-12.1863
▁vierjährig	-12.1863
▁visionär	-12.1863
▁visualisiert	-12.1863
▁vokabular	-12.1863
▁vorfind	-12.1863
▁vorhersagbar	-12.1863
▁wasserversorgung	-12.1863
▁weggeworf	-12.1863
▁welp	-12.1863
▁wertschätzung	-12.1863
▁widerlich	-12.1863
▁wiedergeb	-12.1863
▁wired	-12.1863
▁wirkstoff	-12.1863
▁wissenschaftlerin	-12.1863
▁witw	-12.1863
▁yr	-12.1863
▁zahn	-12.1863
▁zahnbürst	-12.1863
▁zaub	-12.1863
▁zeitplan	-12.1863
▁zerbrochen	-12.1863
▁zettel	-12.1863
▁zielgrupp	-12.1863
▁zufälligerweis	-12.1863
▁zurückgeb	-12.1863
▁zurücklehn	-12.1863
▁zurückzuführ	-12.1863
▁zusammenarbeitet	-12.1863
▁ärgert	-12.1863
▁öls	-12.1863
▁östrog	-12.1863
▁übertreff	-12.1863
▁1.500	-12.2435
▁13.	-12.2435
▁1960ern	-12.2435
▁1979	-12.2435
▁1987	-12.2435
▁1992	-12.2435
▁54	-12.2435
▁73	-12.2435
▁8.000	-12.2435
▁82	-12.2435
▁93	-12.2435
▁abfäll	-12.2435
▁abgebaut	-12.2435
▁abgegeben	-12.2435
▁abgehalten	-12.2435
▁abgeleitet	-12.2435
▁abhol	-12.2435
▁abschalt	-12.2435
▁abstimm	-12.2435
▁action	-12.2435
▁adhs	-12.2435
▁aime	-12.2435
▁akademi	-12.2435
▁albtraum	-12.2435
▁algebra	-12.2435
▁aliens	-12.2435
▁allumfassend	-12.2435
▁anfertig	-12.2435
▁angrenzend	-12.2435
▁anordn	-12.2435
▁anstrengend	-12.2435
▁anzuerkenn	-12.2435
▁anzugreif	-12.2435
▁anzuhalt	-12.2435
▁arbeitstag	-12.2435
▁arch	-12.2435
▁artikeln	-12.2435
▁assoziier	-12.2435
▁atomkraft	-12.2435
▁aufführ	-12.2435
▁aufgewacht	-12.2435
▁aufleucht	-12.2435
▁aufsetz	-12.2435
▁aufwendig	-12.2435
▁augenbrau	-12.2435
▁ausbau	-12.2435
▁ausgibt	-12.2435
▁ausging	-12.2435
▁aussagt	-12.2435
▁ausserd	-12.2435
▁auszuweit	-12.2435
▁auszuwähl	-12.2435
▁bali	-12.2435
▁ballons	-12.2435
▁baltimor	-12.2435
▁bbc	-12.2435
▁befund	-12.2435
▁behandlungsmethod	-12.2435
▁belastbarkeit	-12.2435
▁belebt	-12.2435
▁berechtigt	-12.2435
▁berufsleb	-12.2435
▁beruhigend	-12.2435
▁beschiss	-12.2435
▁beschließ	-12.2435
▁bestieg	-12.2435
▁bestrahlung	-12.2435
▁bilanz	-12.2435
▁bleibend	-12.2435
▁bombardiert	-12.2435
▁bond	-12.2435
▁brannt	-12.2435
▁bruttoinlandsprodukt	-12.2435
▁bündeln	-12.2435
▁bürgerlich	-12.2435
▁bürogebäud	-12.2435
▁canc	-12.2435
▁chop	-12.2435
▁computermodell	-12.2435
▁deep	-12.2435
▁dehnt	-12.2435
▁demographisch	-12.2435
▁dg	-12.2435
▁dringt	-12.2435
▁drum	-12.2435
▁edl	-12.2435
▁eifrig	-12.2435
▁einfüg	-12.2435
▁einführt	-12.2435
▁eingehend	-12.2435
▁einzuricht	-12.2435
▁eisenbahn	-12.2435
▁eiszeit	-12.2435
▁elementarteilch	-12.2435
▁elizabeth	-12.2435
▁ellenbog	-12.2435
▁entnomm	-12.2435
▁erdenklich	-12.2435
▁erfolgs	-12.2435
▁erschieß	-12.2435
▁erworb	-12.2435
▁exklusiv	-12.2435
▁expertis	-12.2435
▁extrazellulär	-12.2435
▁exzellent	-12.2435
▁festgenomm	-12.2435
▁fiction	-12.2435
▁flickr	-12.2435
▁flöt	-12.2435
▁folt	-12.2435
▁formation	-12.2435
▁full	-12.2435
▁fänd	-12.2435
▁fünfmal	-12.2435
▁galois	-12.2435
▁gam	-12.2435
▁gefangenschaft	-12.2435
▁gefecht	-12.2435
▁gefordert	-12.2435
▁gehirnareal	-12.2435
▁gehofft	-12.2435
▁geholt	-12.2435
▁gehäus	-12.2435
▁gemäßigt	-12.2435
▁generator	-12.2435
▁geolog	-12.2435
▁georgia	-12.2435
▁gepostet	-12.2435
▁geregelt	-12.2435
▁gerüch	-12.2435
▁geschichtlich	-12.2435
▁gesenkt	-12.2435
▁gesess	-12.2435
▁gesichts	-12.2435
▁getret	-12.2435
▁gewährt	-12.2435
▁golfwag	-12.2435
▁graffiti	-12.2435
▁graham	-12.2435
▁gravierend	-12.2435
▁grill	-12.2435
▁grundsatz	-12.2435
▁grundstein	-12.2435
▁gäng	-12.2435
▁gütern	-12.2435
▁h.	-12.2435
▁hal	-12.2435
▁harl	-12.2435
▁hemisphär	-12.2435
▁herausfindet	-12.2435
▁herauszufordern	-12.2435
▁highway	-12.2435
▁hybrid	-12.2435
▁hyän	-12.2435
▁händewasch	-12.2435
▁häufigkeit	-12.2435
▁infizier	-12.2435
▁inflation	-12.2435
▁infolg	-12.2435
▁informationsquell	-12.2435
▁inhaftiert	-12.2435
▁injizier	-12.2435
▁intellekt	-12.2435
▁internetseit	-12.2435
▁irrelevant	-12.2435
▁jawohl	-12.2435
▁jennif	-12.2435
▁jonas	-12.2435
▁josh	-12.2435
▁kabellos	-12.2435
▁kalifornisch	-12.2435
▁kapell	-12.2435
▁karl	-12.2435
▁kepl	-12.2435
▁kids	-12.2435
▁kill	-12.2435
▁kleinigkeit	-12.2435
▁kleinkind	-12.2435
▁knack	-12.2435
▁knochenmark	-12.2435
▁koennt	-12.2435
▁kollabiert	-12.2435
▁kolumbi	-12.2435
▁kommunismus	-12.2435
▁kommunistisch	-12.2435
▁konsequent	-12.2435
▁konstruktiv	-12.2435
▁konvention	-12.2435
▁konzeptionell	-12.2435
▁koordinier	-12.2435
▁kt	-12.2435
▁kurator	-12.2435
▁labors	-12.2435
▁lautstärk	-12.2435
▁leistungsfähigkeit	-12.2435
▁lernend	-12.2435
▁lesern	-12.2435
▁lesters	-12.2435
▁linkshänd	-12.2435
▁lobby	-12.2435
▁losleg	-12.2435
▁loszulass	-12.2435
▁luk	-12.2435
▁lup	-12.2435
▁lästig	-12.2435
▁magnetfeld	-12.2435
▁mahatma	-12.2435
▁manifestiert	-12.2435
▁mantra	-12.2435
▁manuell	-12.2435
▁maryland	-12.2435
▁max	-12.2435
▁maximier	-12.2435
▁meldung	-12.2435
▁mexikan	-12.2435
▁mies	-12.2435
▁mikroorganism	-12.2435
▁missverstand	-12.2435
▁mitgemacht	-12.2435
▁mittelalterlich	-12.2435
▁nationalität	-12.2435
▁nichtsdestotrotz	-12.2435
▁oregon	-12.2435
▁philippin	-12.2435
▁pionier	-12.2435
▁planetarisch	-12.2435
▁pleit	-12.2435
▁pop	-12.2435
▁prima	-12.2435
▁prinzessin	-12.2435
▁privatsektor	-12.2435
▁programmierbar	-12.2435
▁prämiss	-12.2435
▁pünktlich	-12.2435
▁ratingagentur	-12.2435
▁rechtmäßig	-12.2435
▁regenzeit	-12.2435
▁repräsentation	-12.2435
▁romo	-12.2435
▁roosevelt	-12.2435
▁rucksack	-12.2435
▁ruin	-12.2435
▁rupi	-12.2435
▁saison	-12.2435
▁sait	-12.2435
▁schab	-12.2435
▁schier	-12.2435
▁schleim	-12.2435
▁schmerzt	-12.2435
▁schrie	-12.2435
▁schuljahr	-12.2435
▁schwarm	-12.2435
▁schwör	-12.2435
▁seeleopard	-12.2435
▁segeln	-12.2435
▁segment	-12.2435
▁sehnsucht	-12.2435
▁selbstständig	-12.2435
▁senat	-12.2435
▁senf	-12.2435
▁sibiri	-12.2435
▁singt	-12.2435
▁sozialarbeit	-12.2435
▁spaghetti-sauc	-12.2435
▁stadtteil	-12.2435
▁stang	-12.2435
▁starbucks	-12.2435
▁stockholm	-12.2435
▁stolpert	-12.2435
▁strahlend	-12.2435
▁strebt	-12.2435
▁strikt	-12.2435
▁su	-12.2435
▁supermassiv	-12.2435
▁süßwass	-12.2435
▁tanzend	-12.2435
▁tektonisch	-12.2435
▁tokio	-12.2435
▁tokyo	-12.2435
▁trost	-12.2435
▁twittern	-12.2435
▁türkisch	-12.2435
▁ucla	-12.2435
▁unbehag	-12.2435
▁unerforscht	-12.2435
▁unerträglich	-12.2435
▁unerwünscht	-12.2435
▁unfähigkeit	-12.2435
▁ungesund	-12.2435
▁unglück	-12.2435
▁unregelmäßig	-12.2435
▁untergebracht	-12.2435
▁unterkunft	-12.2435
▁unternehmung	-12.2435
▁unterschrieben	-12.2435
▁us-dollar	-12.2435
▁us-regierung	-12.2435
▁vancouv	-12.2435
▁verabreich	-12.2435
▁veranlass	-12.2435
▁verantwortungsvoll	-12.2435
▁vergewaltig	-12.2435
▁verhungern	-12.2435
▁verlagert	-12.2435
▁verlink	-12.2435
▁vermittl	-12.2435
▁verwandlung	-12.2435
▁verwundbar	-12.2435
▁verwüstet	-12.2435
▁verzögerung	-12.2435
▁verängstigt	-12.2435
▁videokamera	-12.2435
▁vielschichtig	-12.2435
▁vollbracht	-12.2435
▁volt	-12.2435
▁vorderseit	-12.2435
▁vorderst	-12.2435
▁vordring	-12.2435
▁vorgegeben	-12.2435
▁vorhergesagt	-12.2435
▁vorherseh	-12.2435
▁vorstädt	-12.2435
▁vorzunehm	-12.2435
▁waag	-12.2435
▁waer	-12.2435
▁wahllos	-12.2435
▁wahrlich	-12.2435
▁wasserfall	-12.2435
▁weinend	-12.2435
▁weiterleb	-12.2435
▁westens	-12.2435
▁widerspiegeln	-12.2435
▁widerstandsfähigkeit	-12.2435
▁wochenlang	-12.2435
▁wörterbüch	-12.2435
▁zensiert	-12.2435
▁zentralisiert	-12.2435
▁zugut	-12.2435
▁zukommt	-12.2435
▁zuneigung	-12.2435
▁zusammenbau	-12.2435
▁zuschauern	-12.2435
▁zwischenmenschlich	-12.2435
▁zwäng	-12.2435
▁ähm	-12.2435
▁ökosystems	-12.2435
▁übergegang	-12.2435
▁überspring	-12.2435
▁übersteigt	-12.2435
▁übertreibung	-12.2435
▁....	-12.3041
▁1918	-12.3041
▁1974	-12.3041
▁4000	-12.3041
▁53	-12.3041
▁94	-12.3041
▁abbaubar	-12.3041
▁abc	-12.3041
▁abwärts	-12.3041
▁abzugeb	-12.3041
▁achtet	-12.3041
▁achtjährig	-12.3041
▁acum	-12.3041
▁adipositas	-12.3041
▁adoptiert	-12.3041
▁agentur	-12.3041
▁aktualisier	-12.3041
▁alfred	-12.3041
▁allerletzt	-12.3041
▁alligator	-12.3041
▁amanda	-12.3041
▁ameisenkoloni	-12.3041
▁anatomisch	-12.3041
▁anbetracht	-12.3041
▁angebaut	-12.3041
▁angesehen	-12.3041
▁anhält	-12.3041
▁anregung	-12.3041
▁ansteigt	-12.3041
▁anstellt	-12.3041
▁anstreb	-12.3041
▁anthropologi	-12.3041
▁anwendet	-12.3041
▁anzustell	-12.3041
▁anästhesi	-12.3041
▁arbeitszeit	-12.3041
▁archi	-12.3041
▁argumentation	-12.3041
▁arkansas	-12.3041
▁asphalt	-12.3041
▁atmung	-12.3041
▁auditiv	-12.3041
▁aufblüh	-12.3041
▁aufgegriff	-12.3041
▁aufräum	-12.3041
▁aufsicht	-12.3041
▁aufzuzeichn	-12.3041
▁augenlicht	-12.3041
▁ausfindig	-12.3041
▁ausführt	-12.3041
▁ausgeprägt	-12.3041
▁ausgerüstet	-12.3041
▁ausgestrahlt	-12.3041
▁auskenn	-12.3041
▁aussagekräftig	-12.3041
▁auszuschalt	-12.3041
▁auszuüb	-12.3041
▁ausübt	-12.3041
▁außenpolitik	-12.3041
▁ballast	-12.3041
▁bang	-12.3041
▁bangladesh	-12.3041
▁barbara	-12.3041
▁bauernhof	-12.3041
▁bedeutungsvoll	-12.3041
▁befriedigung	-12.3041
▁befruchtet	-12.3041
▁befähigt	-12.3041
▁beiß	-12.3041
▁bekämpfung	-12.3041
▁beleidigung	-12.3041
▁beruhigt	-12.3041
▁besetz	-12.3041
▁besiedelt	-12.3041
▁besorgniserregend	-12.3041
▁betreuung	-12.3041
▁bewohnbar	-12.3041
▁bewundert	-12.3041
▁bezwing	-12.3041
▁billigst	-12.3041
▁binn	-12.3041
▁blutfluss	-12.3041
▁board	-12.3041
▁botswana	-12.3041
▁bürokrati	-12.3041
▁cds	-12.3041
▁cern	-12.3041
▁checklist	-12.3041
▁christoph	-12.3041
▁darbietung	-12.3041
▁day	-12.3041
▁defizit	-12.3041
▁demnächst	-12.3041
▁deprimierend	-12.3041
▁diana	-12.3041
▁differenziert	-12.3041
▁diversität	-12.3041
▁doha	-12.3041
▁doktortitel	-12.3041
▁dominier	-12.3041
▁donn	-12.3041
▁drama	-12.3041
▁dräht	-12.3041
▁dummheit	-12.3041
▁durchlebt	-12.3041
▁e.	-12.3041
▁effektivität	-12.3041
▁einatm	-12.3041
▁eindrück	-12.3041
▁eineiig	-12.3041
▁einfällt	-12.3041
▁eingefügt	-12.3041
▁eingegeben	-12.3041
▁eingereicht	-12.3041
▁eingeschaltet	-12.3041
▁einh	-12.3041
▁einspar	-12.3041
▁eisbergs	-12.3041
▁eleanor	-12.3041
▁elisabeth	-12.3041
▁elternschaft	-12.3041
▁entscheidungsprozess	-12.3041
▁entzieh	-12.3041
▁epoch	-12.3041
▁erbau	-12.3041
▁erbgut	-12.3041
▁erdähnlich	-12.3041
▁erfreu	-12.3041
▁erkältung	-12.3041
▁ernannt	-12.3041
▁erobern	-12.3041
▁errechnet	-12.3041
▁erschwert	-12.3041
▁erstaun	-12.3041
▁export	-12.3041
▁extremismus	-12.3041
▁faltet	-12.3041
▁fangschreckenkrebs	-12.3041
▁faszination	-12.3041
▁faszinierendst	-12.3041
▁feministisch	-12.3041
▁flugzeugs	-12.3041
▁flücht	-12.3041
▁formal	-12.3041
▁fortlaufend	-12.3041
▁forum	-12.3041
▁fragment	-12.3041
▁friedman	-12.3041
▁galileo	-12.3041
▁gastgeb	-12.3041
▁gedanklich	-12.3041
▁gefertigt	-12.3041
▁gefärbt	-12.3041
▁gehackt	-12.3041
▁gehirnhälft	-12.3041
▁geistlich	-12.3041
▁gelagert	-12.3041
▁geniess	-12.3041
▁genozid	-12.3041
▁geparkt	-12.3041
▁gerechter	-12.3041
▁gerechtfertigt	-12.3041
▁gerücht	-12.3041
▁geschieden	-12.3041
▁geschlechts	-12.3041
▁geschlechtsverkehr	-12.3041
▁geweckt	-12.3041
▁gewollt	-12.3041
▁gieß	-12.3041
▁glückwunsch	-12.3041
▁go	-12.3041
▁handels	-12.3041
▁handelsüblich	-12.3041
▁hau	-12.3041
▁hausarbeit	-12.3041
▁haushaltsgerät	-12.3041
▁hav	-12.3041
▁heiligkeit	-12.3041
▁heraushol	-12.3041
▁herausstell	-12.3041
▁herauszieh	-12.3041
▁herzfrequenz	-12.3041
▁hill	-12.3041
▁hindert	-12.3041
▁hingerichtet	-12.3041
▁hingewies	-12.3041
▁hinterfragt	-12.3041
▁hinzugeh	-12.3041
▁hirnzell	-12.3041
▁hitl	-12.3041
▁hock	-12.3041
▁hominid	-12.3041
▁hotelzimm	-12.3041
▁hous	-12.3041
▁humanistisch	-12.3041
▁hypothek	-12.3041
▁idealismus	-12.3041
▁imaginär	-12.3041
▁immigrant	-12.3041
▁importiert	-12.3041
▁intergalaktisch	-12.3041
▁isaac	-12.3041
▁jahrzehntelang	-12.3041
▁jason	-12.3041
▁jazeera	-12.3041
▁jill	-12.3041
▁kairo	-12.3041
▁kalend	-12.3041
▁kapiert	-12.3041
▁kartenspiel	-12.3041
▁katalysator	-12.3041
▁kausal	-12.3041
▁kehrseit	-12.3041
▁kenianisch	-12.3041
▁klimaerwärmung	-12.3041
▁knorpel	-12.3041
▁komfort	-12.3041
▁kommunal	-12.3041
▁kompakt	-12.3041
▁kompliment	-12.3041
▁komponier	-12.3041
▁konfrontation	-12.3041
▁kongressabgeordnet	-12.3041
▁kopernikus	-12.3041
▁kostbar	-12.3041
▁kraftstoff	-12.3041
▁kuppel	-12.3041
▁kätzch	-12.3041
▁kühlschränk	-12.3041
▁kühlung	-12.3041
▁künstlers	-12.3041
▁lachs	-12.3041
▁landmass	-12.3041
▁langley	-12.3041
▁lebenswert	-12.3041
▁leck	-12.3041
▁lehm	-12.3041
▁leidens	-12.3041
▁lein	-12.3041
▁lesbisch	-12.3041
▁lesterland	-12.3041
▁lichtquell	-12.3041
▁lol	-12.3041
▁lotteri	-12.3041
▁lyrik	-12.3041
▁löscht	-12.3041
▁machtvoll	-12.3041
▁mamma	-12.3041
▁mammogramm	-12.3041
▁mangelernährung	-12.3041
▁maps	-12.3041
▁mario	-12.3041
▁meeresschutzgebiet	-12.3041
▁mikrokredit	-12.3041
▁millard	-12.3041
▁ministerium	-12.3041
▁misshandelt	-12.3041
▁misstrau	-12.3041
▁mitbekomm	-12.3041
▁mitmensch	-12.3041
▁mitzunehm	-12.3041
▁modedesign	-12.3041
▁modells	-12.3041
▁monatelang	-12.3041
▁montiert	-12.3041
▁movemb	-12.3041
▁mühsam	-12.3041
▁müllhald	-12.3041
▁nachseh	-12.3041
▁narr	-12.3041
▁neurolog	-12.3041
▁nichtregierungsorganisation	-12.3041
▁niederländ	-12.3041
▁nigerias	-12.3041
▁nordamerikanisch	-12.3041
▁nutzern	-12.3041
▁näht	-12.3041
▁ooh	-12.3041
▁optimiert	-12.3041
▁packung	-12.3041
▁palett	-12.3041
▁partikeln	-12.3041
▁petition	-12.3041
▁petrischal	-12.3041
▁phoenix	-12.3041
▁phras	-12.3041
▁pik	-12.3041
▁pinsel	-12.3041
▁play	-12.3041
▁pr	-12.3041
▁prim	-12.3041
▁psychiatri	-12.3041
▁publiziert	-12.3041
▁quantentheori	-12.3041
▁radikaler	-12.3041
▁radiolog	-12.3041
▁raucht	-12.3041
▁raumzeit	-12.3041
▁rechnet	-12.3041
▁reflexion	-12.3041
▁regelung	-12.3041
▁regenerativ	-12.3041
▁regt	-12.3041
▁repertoir	-12.3041
▁reptili	-12.3041
▁resourc	-12.3041
▁rica	-12.3041
▁rindfleisch	-12.3041
▁ripp	-12.3041
▁rna	-12.3041
▁roots	-12.3041
▁rosling	-12.3041
▁rundherum	-12.3041
▁russell	-12.3041
▁römisch	-12.3041
▁rückgrat	-12.3041
▁sackgass	-12.3041
▁sagenhaft	-12.3041
▁sandt	-12.3041
▁saudi-arabi	-12.3041
▁schubs	-12.3041
▁schulsyst	-12.3041
▁schupp	-12.3041
▁schwankung	-12.3041
▁selbstlos	-12.3041
▁sensibel	-12.3041
▁sergio	-12.3041
▁servier	-12.3041
▁shoots	-12.3041
▁sinkend	-12.3041
▁soetwas	-12.3041
▁sozialwissenschaft	-12.3041
▁spannendst	-12.3041
▁sperr	-12.3041
▁spiritualität	-12.3041
▁sprüng	-12.3041
▁stabilisiert	-12.3041
▁stanley	-12.3041
▁stimulier	-12.3041
▁straßeneck	-12.3041
▁stützt	-12.3041
▁subsahara-afrika	-12.3041
▁sudhir	-12.3041
▁suey	-12.3041
▁sympathi	-12.3041
▁säur	-12.3041
▁südafrikanisch	-12.3041
▁südbronx	-12.3041
▁t-shirt	-12.3041
▁tagebuch	-12.3041
▁tattoos	-12.3041
▁technology	-12.3041
▁telefonier	-12.3041
▁telekommunikation	-12.3041
▁tempest	-12.3041
▁tick	-12.3041
▁tomat	-12.3041
▁tumors	-12.3041
▁umarmt	-12.3041
▁umseh	-12.3041
▁unkontrolliert	-12.3041
▁unterkünft	-12.3041
▁unterzeichn	-12.3041
▁vag	-12.3041
▁verfehlt	-12.3041
▁verfeinert	-12.3041
▁verführerisch	-12.3041
▁vergeh	-12.3041
▁vergiss	-12.3041
▁verklagt	-12.3041
▁verkörperung	-12.3041
▁verlinkt	-12.3041
▁verprügelt	-12.3041
▁verringerung	-12.3041
▁verschluckt	-12.3041
▁versklavt	-12.3041
▁vertrautheit	-12.3041
▁vertreib	-12.3041
▁verwunderlich	-12.3041
▁voranzutreib	-12.3041
▁vorausgesetzt	-12.3041
▁vorgesehen	-12.3041
▁vorlag	-12.3041
▁voyag	-12.3041
▁wachstumsrat	-12.3041
▁wartend	-12.3041
▁weltkart	-12.3041
▁weltrekord	-12.3041
▁widerstandsfähig	-12.3041
▁widerstandskraft	-12.3041
▁wiederkehrend	-12.3041
▁wien	-12.3041
▁willens	-12.3041
▁wirt	-12.3041
▁wog	-12.3041
▁wurf	-12.3041
▁wählerisch	-12.3041
▁y-achs	-12.3041
▁zeugnis	-12.3041
▁zivilisiert	-12.3041
▁zumeist	-12.3041
▁zurechtkomm	-12.3041
▁zurückleg	-12.3041
▁zusammenbrech	-12.3041
▁zusammenhängt	-12.3041
▁zusammenzufass	-12.3041
▁zwingend	-12.3041
▁äpfel	-12.3041
▁ärgerlich	-12.3041
▁überdacht	-12.3041
▁überleg	-12.3041
▁überschneidung	-12.3041
▁170	-12.3687
▁1800	-12.3687
▁1930ern	-12.3687
▁1967	-12.3687
▁1969	-12.3687
▁360	-12.3687
▁70.000	-12.3687
▁a.	-12.3687
▁abdeck	-12.3687
▁abgelenkt	-12.3687
▁ablenk	-12.3687
▁abschätz	-12.3687
▁achtsamkeit	-12.3687
▁aerodynamisch	-12.3687
▁agency	-12.3687
▁agent	-12.3687
▁agil	-12.3687
▁akkurat	-12.3687
▁akti	-12.3687
▁alarm	-12.3687
▁alleinerziehend	-12.3687
▁allianz	-12.3687
▁alternd	-12.3687
▁america	-12.3687
▁amphibi	-12.3687
▁angereichert	-12.3687
▁anhäufung	-12.3687
▁anklag	-12.3687
▁anomali	-12.3687
▁anpasst	-12.3687
▁anregt	-12.3687
▁anschlag	-12.3687
▁ansprüch	-12.3687
▁anti-angiogenetisch	-12.3687
▁antiretroviral	-12.3687
▁anwendbar	-12.3687
▁anzubau	-12.3687
▁arbeitsgedächtnis	-12.3687
▁arbeitsleb	-12.3687
▁arena	-12.3687
▁armutsgrenz	-12.3687
▁atemzug	-12.3687
▁aufkomm	-12.3687
▁auflad	-12.3687
▁aufruhr	-12.3687
▁aufstrebend	-12.3687
▁aufzeigt	-12.3687
▁ausbrech	-12.3687
▁ausdau	-12.3687
▁ausgeklügelt	-12.3687
▁ausgrab	-12.3687
▁aussprach	-12.3687
▁ausweis	-12.3687
▁auszieh	-12.3687
▁auszubau	-12.3687
▁auszugleich	-12.3687
▁auszuricht	-12.3687
▁automatisierung	-12.3687
▁autounfäll	-12.3687
▁ba	-12.3687
▁bahamas	-12.3687
▁bann	-12.3687
▁batman	-12.3687
▁befolgt	-12.3687
▁befragung	-12.3687
▁befreundet	-12.3687
▁befriedigend	-12.3687
▁behausung	-12.3687
▁beherbergt	-12.3687
▁beitret	-12.3687
▁beizutret	-12.3687
▁bemalt	-12.3687
▁benachbart	-12.3687
▁bequem	-12.3687
▁berichterstattung	-12.3687
▁berühmtheit	-12.3687
▁beschaffenheit	-12.3687
▁beschuldig	-12.3687
▁betet	-12.3687
▁betriebskost	-12.3687
▁betäubt	-12.3687
▁beug	-12.3687
▁bewunder	-12.3687
▁bindend	-12.3687
▁blackberry	-12.3687
▁blah	-12.3687
▁blass	-12.3687
▁blockad	-12.3687
▁blutung	-12.3687
▁bohn	-12.3687
▁bundesregierung	-12.3687
▁bög	-12.3687
▁captcha	-12.3687
▁cart	-12.3687
▁ch	-12.3687
▁charta	-12.3687
▁check	-12.3687
▁clust	-12.3687
▁coh	-12.3687
▁couch	-12.3687
▁courag	-12.3687
▁daf-2	-12.3687
▁dasein	-12.3687
▁ddt	-12.3687
▁defekt	-12.3687
▁denkbar	-12.3687
▁denkmust	-12.3687
▁desertifikation	-12.3687
▁dichtkunst	-12.3687
▁dingern	-12.3687
▁diskurs	-12.3687
▁display	-12.3687
▁dl	-12.3687
▁don	-12.3687
▁dorfbewohn	-12.3687
▁dringlichkeit	-12.3687
▁drohung	-12.3687
▁dung	-12.3687
▁durchbrüch	-12.3687
▁e8	-12.3687
▁eichhörnch	-12.3687
▁einfühlungsvermög	-12.3687
▁einseitig	-12.3687
▁entfacht	-12.3687
▁entfaltet	-12.3687
▁entmutigend	-12.3687
▁entscheidungsfindung	-12.3687
▁enttäusch	-12.3687
▁entwaldung	-12.3687
▁erbring	-12.3687
▁erhaltung	-12.3687
▁erneuern	-12.3687
▁erneuert	-12.3687
▁erosion	-12.3687
▁errichtung	-12.3687
▁erschreckt	-12.3687
▁erteilt	-12.3687
▁erzeugung	-12.3687
▁et	-12.3687
▁ethni	-12.3687
▁ev	-12.3687
▁eva	-12.3687
▁expo	-12.3687
▁fahn	-12.3687
▁fairness	-12.3687
▁federn	-12.3687
▁feigling	-12.3687
▁fell	-12.3687
▁fledermaus	-12.3687
▁fluch	-12.3687
▁forschungsarbeit	-12.3687
▁forschungsergebniss	-12.3687
▁fortpflanz	-12.3687
▁fortsetzung	-12.3687
▁freisetzt	-12.3687
▁friedens	-12.3687
▁fungi	-12.3687
▁garnel	-12.3687
▁gary	-12.3687
▁gaza	-12.3687
▁gebär	-12.3687
▁gecko	-12.3687
▁gedenkstätt	-12.3687
▁gefesselt	-12.3687
▁gefüttert	-12.3687
▁gegensätzlich	-12.3687
▁gehend	-12.3687
▁gelacht	-12.3687
▁gelad	-12.3687
▁geling	-12.3687
▁genehmigung	-12.3687
▁genialität	-12.3687
▁geschichtenerzählens	-12.3687
▁geschick	-12.3687
▁geschweig	-12.3687
▁geschädigt	-12.3687
▁gesichtsausdruck	-12.3687
▁gesorgt	-12.3687
▁gesteigert	-12.3687
▁gewillt	-12.3687
▁gewinnorientiert	-12.3687
▁giftstoff	-12.3687
▁glanz	-12.3687
▁glaubst	-12.3687
▁gleichwertig	-12.3687
▁glied	-12.3687
▁gratulier	-12.3687
▁grundlegendst	-12.3687
▁grundpfeil	-12.3687
▁gültig	-12.3687
▁halbier	-12.3687
▁hausfrau	-12.3687
▁haustür	-12.3687
▁herausgekomm	-12.3687
▁herauszuhol	-12.3687
▁herbeiführ	-12.3687
▁heruntergeladen	-12.3687
▁herzanfall	-12.3687
▁herzklapp	-12.3687
▁hindi	-12.3687
▁hineingeh	-12.3687
▁hinterhof	-12.3687
▁hinterteil	-12.3687
▁holocaust	-12.3687
▁hunt	-12.3687
▁häftling	-12.3687
▁immun	-12.3687
▁indus	-12.3687
▁industrialisiert	-12.3687
▁insass	-12.3687
▁irgendwohin	-12.3687
▁jedermanns	-12.3687
▁jedwed	-12.3687
▁jimmy	-12.3687
▁juan	-12.3687
▁jährig	-12.3687
▁kabul	-12.3687
▁kacheln	-12.3687
▁kenntnis	-12.3687
▁kernkraft	-12.3687
▁kernpunkt	-12.3687
▁kick	-12.3687
▁kindersoldat	-12.3687
▁klassenräum	-12.3687
▁klebstoff	-12.3687
▁kodiert	-12.3687
▁kolumn	-12.3687
▁komprimiert	-12.3687
▁konkurrierend	-12.3687
▁kontinuität	-12.3687
▁kontrollgrupp	-12.3687
▁korrigiert	-12.3687
▁kot	-12.3687
▁kreisförmig	-12.3687
▁lamm	-12.3687
▁lanka	-12.3687
▁lausch	-12.3687
▁lawrenc	-12.3687
▁lehrbüch	-12.3687
▁leo	-12.3687
▁letztens	-12.3687
▁limonad	-12.3687
▁lindern	-12.3687
▁lymphknot	-12.3687
▁lüft	-12.3687
▁lügn	-12.3687
▁machin	-12.3687
▁madagaskar	-12.3687
▁matthew	-12.3687
▁megawatt	-12.3687
▁meilenstein	-12.3687
▁meinst	-12.3687
▁miami	-12.3687
▁mitgenomm	-12.3687
▁modifiziert	-12.3687
▁modul	-12.3687
▁moskau	-12.3687
▁moslems	-12.3687
▁mountain	-12.3687
▁mädels	-12.3687
▁nagel	-12.3687
▁naheleg	-12.3687
▁nationalparks	-12.3687
▁natur-	-12.3687
▁nazis	-12.3687
▁nebenan	-12.3687
▁nebenprodukt	-12.3687
▁nestbau	-12.3687
▁network	-12.3687
▁neunt	-12.3687
▁nisch	-12.3687
▁nordwest	-12.3687
▁nähm	-12.3687
▁oakland	-12.3687
▁oecd	-12.3687
▁olivenöl	-12.3687
▁open-sourc	-12.3687
▁oprah	-12.3687
▁ordnet	-12.3687
▁osama	-12.3687
▁out	-12.3687
▁paarung	-12.3687
▁pag	-12.3687
▁palast	-12.3687
▁papst	-12.3687
▁pathogen	-12.3687
▁peitsch	-12.3687
▁pendeln	-12.3687
▁penn	-12.3687
▁pessimistisch	-12.3687
▁pflast	-12.3687
▁phänomens	-12.3687
▁pianist	-12.3687
▁picasso	-12.3687
▁pigmentiert	-12.3687
▁pirat	-12.3687
▁plato	-12.3687
▁poet	-12.3687
▁profis	-12.3687
▁proportion	-12.3687
▁prostitution	-12.3687
▁protestier	-12.3687
▁quarks	-12.3687
▁quatsch	-12.3687
▁que	-12.3687
▁reduzierung	-12.3687
▁redwoods	-12.3687
▁reflex	-12.3687
▁regn	-12.3687
▁reiner	-12.3687
▁reisend	-12.3687
▁retina	-12.3687
▁riversid	-12.3687
▁rod	-12.3687
▁ronald	-12.3687
▁ross	-12.3687
▁rotier	-12.3687
▁rumpf	-12.3687
▁rändern	-12.3687
▁räub	-12.3687
▁rückblick	-12.3687
▁saatgut	-12.3687
▁saddam	-12.3687
▁sally	-12.3687
▁salzwass	-12.3687
▁satan	-12.3687
▁satellitenbild	-12.3687
▁schallwell	-12.3687
▁schauspielern	-12.3687
▁schiebt	-12.3687
▁schlauch	-12.3687
▁schraub	-12.3687
▁schriftstellerin	-12.3687
▁schwellenländern	-12.3687
▁schwung	-12.3687
▁sehend	-12.3687
▁selbsthilfegrupp	-12.3687
▁seuch	-12.3687
▁sicherheitsgurt	-12.3687
▁sicherst	-12.3687
▁sicherzugeh	-12.3687
▁siebeneinhalb	-12.3687
▁sioux	-12.3687
▁skalier	-12.3687
▁skalierbar	-12.3687
▁solltet	-12.3687
▁solly	-12.3687
▁sonnenuntergang	-12.3687
▁spezialisierung	-12.3687
▁spielerei	-12.3687
▁spinnennetz	-12.3687
▁springend	-12.3687
▁sterns	-12.3687
▁ston	-12.3687
▁stromnetz	-12.3687
▁strukturiert	-12.3687
▁sturz	-12.3687
▁stätt	-12.3687
▁susi	-12.3687
▁syndrom	-12.3687
▁t-shirts	-12.3687
▁taiga	-12.3687
▁talk	-12.3687
▁timing	-12.3687
▁tools	-12.3687
▁tribut	-12.3687
▁trockn	-12.3687
▁türm	-12.3687
▁u.n.	-12.3687
▁ubuntu	-12.3687
▁umgedreht	-12.3687
▁ungeschützt	-12.3687
▁unglaublichst	-12.3687
▁united	-12.3687
▁unmoralisch	-12.3687
▁unscharf	-12.3687
▁unternehmertum	-12.3687
▁unterseit	-12.3687
▁unzufrieden	-12.3687
▁up	-12.3687
▁urknalls	-12.3687
▁vent	-12.3687
▁verdienst	-12.3687
▁verdorben	-12.3687
▁verfeinern	-12.3687
▁verkleinert	-12.3687
▁verlief	-12.3687
▁vermeintlich	-12.3687
▁vermindert	-12.3687
▁verweigern	-12.3687
▁verwoben	-12.3687
▁vibration	-12.3687
▁vietnamesisch	-12.3687
▁villag	-12.3687
▁virgin	-12.3687
▁voranzubring	-12.3687
▁vorbehalten	-12.3687
▁vorzieh	-12.3687
▁vulkanisch	-12.3687
▁wagt	-12.3687
▁wahrnimmt	-12.3687
▁weggenomm	-12.3687
▁wi-fi	-12.3687
▁wiederbelebt	-12.3687
▁wilder	-12.3687
▁wirtschaftssyst	-12.3687
▁wirtschaftswissenschaftl	-12.3687
▁wom	-12.3687
▁zement	-12.3687
▁zugehört	-12.3687
▁zurückgegang	-12.3687
▁zurückzuzieh	-12.3687
▁zusammenleb	-12.3687
▁zustimmt	-12.3687
▁ärmel	-12.3687
▁ärztlich	-12.3687
▁überfischung	-12.3687
▁überfüllt	-12.3687
▁überhol	-12.3687
▁überlebenschanc	-12.3687
▁überprüfung	-12.3687
▁1,4	-12.4377
▁10-jährig	-12.4377
▁1947	-12.4377
▁1949	-12.4377
▁1978	-12.4377
▁1981	-12.4377
▁35.000	-12.4377
▁39	-12.4377
▁4,5	-12.4377
▁41	-12.4377
▁56	-12.4377
▁68	-12.4377
▁7.000	-12.4377
▁76	-12.4377
▁abgeschaltet	-12.4377
▁abwehr	-12.4377
▁academy	-12.4377
▁achill	-12.4377
▁adoption	-12.4377
▁airlin	-12.4377
▁algorithmisch	-12.4377
▁allerwichtigst	-12.4377
▁allesamt	-12.4377
▁allgemeinheit	-12.4377
▁altersgrupp	-12.4377
▁an-	-12.4377
▁analphabet	-12.4377
▁andersherum	-12.4377
▁andersrum	-12.4377
▁andr	-12.4377
▁android	-12.4377
▁angeführt	-12.4377
▁angestieg	-12.4377
▁anheb	-12.4377
▁ankurbeln	-12.4377
▁ankündigung	-12.4377
▁anregend	-12.4377
▁anschalt	-12.4377
▁anzeigt	-12.4377
▁apfelkuch	-12.4377
▁arab	-12.4377
▁arbeitsmarkt	-12.4377
▁arrogant	-12.4377
▁association	-12.4377
▁asymmetrisch	-12.4377
▁atmosphärisch	-12.4377
▁aufbewahr	-12.4377
▁aufgebraucht	-12.4377
▁aufgehob	-12.4377
▁aufgeruf	-12.4377
▁aufgezeigt	-12.4377
▁aufseh	-12.4377
▁aufträg	-12.4377
▁aufzusuch	-12.4377
▁aufzuzeig	-12.4377
▁auktion	-12.4377
▁ausgelassen	-12.4377
▁ausgestreckt	-12.4377
▁austin	-12.4377
▁ausweitung	-12.4377
▁auswirkt	-12.4377
▁badezimm	-12.4377
▁basketball	-12.4377
▁basteln	-12.4377
▁bauchgefühl	-12.4377
▁beansprucht	-12.4377
▁bedauerlich	-12.4377
▁beeindruckendst	-12.4377
▁befähig	-12.4377
▁begierd	-12.4377
▁behindern	-12.4377
▁beifall	-12.4377
▁beklag	-12.4377
▁belastet	-12.4377
▁bemannt	-12.4377
▁benki	-12.4377
▁bereis	-12.4377
▁bergab	-12.4377
▁berufstätig	-12.4377
▁berüchtigt	-12.4377
▁besatzung	-12.4377
▁bestech	-12.4377
▁bestärkt	-12.4377
▁bevölkerungszahl	-12.4377
▁bibliothekar	-12.4377
▁biblisch	-12.4377
▁bihar	-12.4377
▁biomimikry	-12.4377
▁bluthochdruck	-12.4377
▁bodens	-12.4377
▁botanisch	-12.4377
▁brennstoffzell	-12.4377
▁bridg	-12.4377
▁bringst	-12.4377
▁broadmoor	-12.4377
▁bulgari	-12.4377
▁bumm	-12.4377
▁burg	-12.4377
▁bänd	-12.4377
▁cap	-12.4377
▁captain	-12.4377
▁ceo	-12.4377
▁cleveland	-12.4377
▁cochran	-12.4377
▁commons	-12.4377
▁connecticut	-12.4377
▁crash	-12.4377
▁daseins	-12.4377
▁datenpunkt	-12.4377
▁demonstrant	-12.4377
▁desselb	-12.4377
▁destruktiv	-12.4377
▁dias	-12.4377
▁digitalisiert	-12.4377
▁dimitri	-12.4377
▁doktorarbeit	-12.4377
▁dom	-12.4377
▁dominanz	-12.4377
▁download	-12.4377
▁drogenabhängig	-12.4377
▁durchdringt	-12.4377
▁durchgängig	-12.4377
▁durchschnittsalt	-12.4377
▁durchsetz	-12.4377
▁durchzusetz	-12.4377
▁eam	-12.4377
▁ehepartn	-12.4377
▁eiern	-12.4377
▁eigennützig	-12.4377
▁eigentüm	-12.4377
▁eile	-12.4377
▁eilt	-12.4377
▁eindimensional	-12.4377
▁eingeboren	-12.4377
▁eingesteh	-12.4377
▁einricht	-12.4377
▁einschätzung	-12.4377
▁einseh	-12.4377
▁eisberg	-12.4377
▁elam	-12.4377
▁empir	-12.4377
▁empor	-12.4377
▁englischsprachig	-12.4377
▁enthusiastisch	-12.4377
▁entpuppt	-12.4377
▁entzündet	-12.4377
▁erarbeit	-12.4377
▁ergreifend	-12.4377
▁erhitz	-12.4377
▁erhöhung	-12.4377
▁erkundet	-12.4377
▁erkundung	-12.4377
▁erleichtert	-12.4377
▁erlösung	-12.4377
▁ermutigend	-12.4377
▁ernährungssystem	-12.4377
▁erprobt	-12.4377
▁erreg	-12.4377
▁ersatzteil	-12.4377
▁erschreck	-12.4377
▁ersichtlich	-12.4377
▁erspar	-12.4377
▁erwägung	-12.4377
▁essens	-12.4377
▁event	-12.4377
▁extremist	-12.4377
▁fachgebiet	-12.4377
▁feri	-12.4377
▁fertigt	-12.4377
▁festlegt	-12.4377
▁feuerwehrmann	-12.4377
▁final	-12.4377
▁fingerabdruck	-12.4377
▁fleißig	-12.4377
▁fließband	-12.4377
▁flussuf	-12.4377
▁flüstert	-12.4377
▁folgerung	-12.4377
▁forschungsprojekt	-12.4377
▁fortgesetzt	-12.4377
▁fortschritts	-12.4377
▁freespeech	-12.4377
▁freigelassen	-12.4377
▁friedenstrupp	-12.4377
▁fundiert	-12.4377
▁funktionalität	-12.4377
▁füttert	-12.4377
▁galaxienhauf	-12.4377
▁gando	-12.4377
▁gegenmittel	-12.4377
▁gehirnerschütterung	-12.4377
▁gehorch	-12.4377
▁gehält	-12.4377
▁geisteswissenschaft	-12.4377
▁gekühlt	-12.4377
▁gemeinkost	-12.4377
▁geneigt	-12.4377
▁geo-engineering	-12.4377
▁geruchssinn	-12.4377
▁gescannt	-12.4377
▁geschleudert	-12.4377
▁geschäftlich	-12.4377
▁geschäftsmann	-12.4377
▁gesundheitsbehörd	-12.4377
▁gesundheitsproblem	-12.4377
▁getaucht	-12.4377
▁gewechselt	-12.4377
▁gibst	-12.4377
▁glaubwürdigkeit	-12.4377
▁gleichsam	-12.4377
▁glenn	-12.4377
▁goldrausch	-12.4377
▁grauenhaft	-12.4377
▁grey	-12.4377
▁grundbesitz	-12.4377
▁größtmöglich	-12.4377
▁grünfläch	-12.4377
▁guerilla	-12.4377
▁göttern	-12.4377
▁hadron	-12.4377
▁haltestell	-12.4377
▁handtasch	-12.4377
▁has	-12.4377
▁heforsh	-12.4377
▁heiz	-12.4377
▁heldenhaft	-12.4377
▁heranzieh	-12.4377
▁herausfordern	-12.4377
▁herausgefordert	-12.4377
▁herkam	-12.4377
▁herumflieg	-12.4377
▁hierarchisch	-12.4377
▁hingezog	-12.4377
▁hinging	-12.4377
▁hinzuzufüg	-12.4377
▁hochland	-12.4377
▁homosexualität	-12.4377
▁hummeln	-12.4377
▁hyperbolisch	-12.4377
▁höchstwahrscheinlich	-12.4377
▁ignorant	-12.4377
▁infrarot	-12.4377
▁initiiert	-12.4377
▁injiziert	-12.4377
▁instanz	-12.4377
▁inwiefern	-12.4377
▁jeep	-12.4377
▁judentum	-12.4377
▁julius	-12.4377
▁jun	-12.4377
▁kabin	-12.4377
▁kaliforniens	-12.4377
▁kalkutta	-12.4377
▁kamerad	-12.4377
▁kapstadt	-12.4377
▁keinesfalls	-12.4377
▁keins	-12.4377
▁kentucky	-12.4377
▁kindlich	-12.4377
▁kinn	-12.4377
▁kleidungsstück	-12.4377
▁klimaveränderung	-12.4377
▁kommission	-12.4377
▁kompass	-12.4377
▁komponiert	-12.4377
▁konvertiert	-12.4377
▁kostspielig	-12.4377
▁kristall	-12.4377
▁kron	-12.4377
▁kuss	-12.4377
▁königlich	-12.4377
▁landmin	-12.4377
▁langsamkeit	-12.4377
▁langweil	-12.4377
▁latt	-12.4377
▁leads	-12.4377
▁legend	-12.4377
▁lehrling	-12.4377
▁leopard	-12.4377
▁lieblingsbeispiel	-12.4377
▁lieferant	-12.4377
▁lifestyl	-12.4377
▁lithium	-12.4377
▁logarithmisch	-12.4377
▁lohn	-12.4377
▁läuf	-12.4377
▁lügt	-12.4377
▁maitreya	-12.4377
▁medicin	-12.4377
▁meeresfrücht	-12.4377
▁meerjungfrau	-12.4377
▁mien	-12.4377
▁mikro	-12.4377
▁militärs	-12.4377
▁mittagspaus	-12.4377
▁mittendrin	-12.4377
▁modus	-12.4377
▁moleküls	-12.4377
▁monument	-12.4377
▁multipl	-12.4377
▁multiversums	-12.4377
▁möbeln	-12.4377
▁nachmach	-12.4377
▁nachzugeh	-12.4377
▁nahrungssuch	-12.4377
▁nanomet	-12.4377
▁neff	-12.4377
▁netra	-12.4377
▁niedergang	-12.4377
▁niedergeschlagen	-12.4377
▁nordamerikas	-12.4377
▁notizbuch	-12.4377
▁numerisch	-12.4377
▁nähr	-12.4377
▁opa	-12.4377
▁operationssaal	-12.4377
▁orang-utans	-12.4377
▁orientier	-12.4377
▁originell	-12.4377
▁p	-12.4377
▁patentier	-12.4377
▁peers	-12.4377
▁perfektion	-12.4377
▁perfektioniert	-12.4377
▁pflanzlich	-12.4377
▁philipp	-12.4377
▁portal	-12.4377
▁pott	-12.4377
▁priz	-12.4377
▁problematik	-12.4377
▁prognostiziert	-12.4377
▁projizier	-12.4377
▁proteins	-12.4377
▁prüft	-12.4377
▁ps	-12.4377
▁pud	-12.4377
▁pumpt	-12.4377
▁quetsch	-12.4377
▁quo	-12.4377
▁raub	-12.4377
▁reißt	-12.4377
▁reserv	-12.4377
▁rituell	-12.4377
▁rockefell	-12.4377
▁roter	-12.4377
▁roy	-12.4377
▁ryan	-12.4377
▁röntgenbild	-12.4377
▁sandkörn	-12.4377
▁saug	-12.4377
▁saul	-12.4377
▁schaman	-12.4377
▁sche	-12.4377
▁schießerei	-12.4377
▁schildern	-12.4377
▁schlichtweg	-12.4377
▁schrecklicher	-12.4377
▁schuss	-12.4377
▁schwarzäugig	-12.4377
▁schwert	-12.4377
▁schädling	-12.4377
▁schärf	-12.4377
▁schöpferisch	-12.4377
▁sehnt	-12.4377
▁selbstmordattentät	-12.4377
▁selbstorganisation	-12.4377
▁semest	-12.4377
▁serotonin	-12.4377
▁sickert	-12.4377
▁silikon	-12.4377
▁singl	-12.4377
▁skifahr	-12.4377
▁sl	-12.4377
▁slogan	-12.4377
▁sm	-12.4377
▁sobul	-12.4377
▁sonnenenergi	-12.4377
▁sopa	-12.4377
▁spaziert	-12.4377
▁spielregeln	-12.4377
▁sportlich	-12.4377
▁stimmts	-12.4377
▁stolpern	-12.4377
▁straftat	-12.4377
▁strick	-12.4377
▁studentinn	-12.4377
▁stärkt	-12.4377
▁störend	-12.4377
▁suggeriert	-12.4377
▁supermacht	-12.4377
▁synchronisier	-12.4377
▁synchronisiert	-12.4377
▁tafeln	-12.4377
▁takt	-12.4377
▁tauchgang	-12.4377
▁taxifahr	-12.4377
▁ted-konferenz	-12.4377
▁tendiert	-12.4377
▁teufels	-12.4377
▁tierreich	-12.4377
▁tolerant	-12.4377
▁tonhöh	-12.4377
▁transformiert	-12.4377
▁transplantier	-12.4377
▁traumatisch	-12.4377
▁umarmung	-12.4377
▁umsätz	-12.4377
▁umweltschütz	-12.4377
▁umzubring	-12.4377
▁unbehaglich	-12.4377
▁ungarisch	-12.4377
▁unrealistisch	-12.4377
▁unterbricht	-12.4377
▁unterliegt	-12.4377
▁unverständlich	-12.4377
▁unveränderlich	-12.4377
▁vaginas	-12.4377
▁variabilität	-12.4377
▁ven	-12.4377
▁verachtung	-12.4377
▁verehrt	-12.4377
▁vereinbart	-12.4377
▁vergebung	-12.4377
▁verhelf	-12.4377
▁verknüpfung	-12.4377
▁verlagern	-12.4377
▁vermied	-12.4377
▁vernachlässig	-12.4377
▁verschleiert	-12.4377
▁verstehst	-12.4377
▁verständniss	-12.4377
▁verstümmelt	-12.4377
▁vertief	-12.4377
▁verworf	-12.4377
▁verwundet	-12.4377
▁vielfältigkeit	-12.4377
▁volkswirtschaft	-12.4377
▁vorangegangen	-12.4377
▁vorbeugung	-12.4377
▁vorgeführt	-12.4377
▁vorgetäuscht	-12.4377
▁vorhäng	-12.4377
▁vorrat	-12.4377
▁vorstellungsgespräch	-12.4377
▁wahnvorstellung	-12.4377
▁wartezimm	-12.4377
▁wat	-12.4377
▁webs	-12.4377
▁wegkomm	-12.4377
▁wehr	-12.4377
▁weht	-12.4377
▁weiterzumach	-12.4377
▁weltbest	-12.4377
▁weltklass	-12.4377
▁weltlich	-12.4377
▁wesentlicher	-12.4377
▁willentlich	-12.4377
▁wohlstands	-12.4377
▁wohltätig	-12.4377
▁wohltätigkeitsorganisation	-12.4377
▁wortschatz	-12.4377
▁wundersam	-12.4377
▁x-achs	-12.4377
▁your	-12.4377
▁zahnarzt	-12.4377
▁zelebrier	-12.4377
▁zellkern	-12.4377
▁zelltyp	-12.4377
▁zersetz	-12.4377
▁zk	-12.4377
▁zuflucht	-12.4377
▁zugab	-12.4377
▁zugehörig	-12.4377
▁zugunst	-12.4377
▁zusammengebrochen	-12.4377
▁zuwachs	-12.4377
▁äh	-12.4377
▁überallhin	-12.4377
▁überarbeit	-12.4377
▁überquerung	-12.4377
▁überschreitet	-12.4377
▁1,6	-12.5118
▁1930	-12.5118
▁1962	-12.5118
▁2,3	-12.5118
▁2.500	-12.5118
▁25.	-12.5118
▁29.	-12.5118
▁30ern	-12.5118
▁40ern	-12.5118
▁500.000	-12.5118
▁750	-12.5118
▁8.	-12.5118
▁89	-12.5118
▁9.	-12.5118
▁abbieg	-12.5118
▁abbring	-12.5118
▁abgrenzung	-12.5118
▁abkühl	-12.5118
▁abständ	-12.5118
▁agnostisch	-12.5118
▁aktivistin	-12.5118
▁alabama	-12.5118
▁alexandria	-12.5118
▁allmächtig	-12.5118
▁althergebracht	-12.5118
▁anbietet	-12.5118
▁angesiedelt	-12.5118
▁anorganisch	-12.5118
▁anricht	-12.5118
▁ansetz	-12.5118
▁antidepressiva	-12.5118
▁anziehend	-12.5118
▁anzutret	-12.5118
▁appetit	-12.5118
▁apropos	-12.5118
▁archimed	-12.5118
▁arsenal	-12.5118
▁arts	-12.5118
▁asiens	-12.5118
▁ast	-12.5118
▁ateli	-12.5118
▁attack	-12.5118
▁auferlegt	-12.5118
▁aufgebroch	-12.5118
▁aufgetrag	-12.5118
▁aufhält	-12.5118
▁aufkommend	-12.5118
▁aufkommt	-12.5118
▁aufsatz	-12.5118
▁aufschwung	-12.5118
▁aufzieh	-12.5118
▁aufzudeck	-12.5118
▁aufzulös	-12.5118
▁aufzusteig	-12.5118
▁ausfüll	-12.5118
▁ausgebreitet	-12.5118
▁ausgegang	-12.5118
▁ausgestoß	-12.5118
▁auslass	-12.5118
▁ausrechn	-12.5118
▁aussprech	-12.5118
▁auszustatt	-12.5118
▁automobilindustri	-12.5118
▁bahnhof	-12.5118
▁be	-12.5118
▁beeil	-12.5118
▁befall	-12.5118
▁beherberg	-12.5118
▁beleidigt	-12.5118
▁bereitstellt	-12.5118
▁bereitzustell	-12.5118
▁bereu	-12.5118
▁beschämend	-12.5118
▁bestenfalls	-12.5118
▁bestürzt	-12.5118
▁betraf	-12.5118
▁betreut	-12.5118
▁betteln	-12.5118
▁betäub	-12.5118
▁beul	-12.5118
▁beurteilung	-12.5118
▁bevorstehend	-12.5118
▁bewerbung	-12.5118
▁bezweifl	-12.5118
▁bib	-12.5118
▁bildhau	-12.5118
▁biographi	-12.5118
▁biomateriali	-12.5118
▁bitter	-12.5118
▁boeing	-12.5118
▁bombardier	-12.5118
▁bonus	-12.5118
▁bowl	-12.5118
▁bp	-12.5118
▁brasiliens	-12.5118
▁breitengrad	-12.5118
▁briefmark	-12.5118
▁brüst	-12.5118
▁bush-regierung	-12.5118
▁bäck	-12.5118
▁ceos	-12.5118
▁chad	-12.5118
▁charakterisiert	-12.5118
▁charlott	-12.5118
▁cocktail	-12.5118
▁collid	-12.5118
▁computertechnologi	-12.5118
▁cov	-12.5118
▁dad	-12.5118
▁darleh	-12.5118
▁dawkins	-12.5118
▁dazugehörig	-12.5118
▁demokratisierung	-12.5118
▁designprozess	-12.5118
▁diebstahl	-12.5118
▁differenzier	-12.5118
▁dinosauriern	-12.5118
▁diskret	-12.5118
▁dividend	-12.5118
▁do	-12.5118
▁dokumentarfilm	-12.5118
▁dolmetscherin	-12.5118
▁düngemittel	-12.5118
▁eduardo	-12.5118
▁effizientest	-12.5118
▁ehemänn	-12.5118
▁ehrlicher	-12.5118
▁eignet	-12.5118
▁eingedrung	-12.5118
▁einkommensverteilung	-12.5118
▁einlass	-12.5118
▁einschlaf	-12.5118
▁einzubau	-12.5118
▁elitär	-12.5118
▁embryo	-12.5118
▁endprodukt	-12.5118
▁engineering	-12.5118
▁englands	-12.5118
▁engst	-12.5118
▁entgeh	-12.5118
▁erbärmlich	-12.5118
▁erfüllend	-12.5118
▁erleichtern	-12.5118
▁ermittelt	-12.5118
▁ermächtigung	-12.5118
▁errechn	-12.5118
▁eul	-12.5118
▁extremität	-12.5118
▁fachleut	-12.5118
▁fallend	-12.5118
▁farbstoff	-12.5118
▁featur	-12.5118
▁feministin	-12.5118
▁fenstern	-12.5118
▁festivals	-12.5118
▁feststellung	-12.5118
▁fiktiv	-12.5118
▁fingerspitz	-12.5118
▁finster	-12.5118
▁fluglini	-12.5118
▁flügeln	-12.5118
▁fred	-12.5118
▁freigegeb	-12.5118
▁freudig	-12.5118
▁frontal	-12.5118
▁frühstadium	-12.5118
▁fährst	-12.5118
▁färb	-12.5118
▁fünfzehn	-12.5118
▁füss	-12.5118
▁galapagos	-12.5118
▁gangs	-12.5118
▁gast	-12.5118
▁gedrängt	-12.5118
▁gehasst	-12.5118
▁geklappt	-12.5118
▁gel	-12.5118
▁gelitt	-12.5118
▁gemeldet	-12.5118
▁genf	-12.5118
▁genomik	-12.5118
▁geradeaus	-12.5118
▁geträumt	-12.5118
▁gewandt	-12.5118
▁geweint	-12.5118
▁gleichgesinnt	-12.5118
▁gphin	-12.5118
▁group	-12.5118
▁großmeist	-12.5118
▁großstädt	-12.5118
▁gummi	-12.5118
▁gutartig	-12.5118
▁h5n1	-12.5118
▁hackern	-12.5118
▁hauptsach	-12.5118
▁heft	-12.5118
▁herbi	-12.5118
▁herumspiel	-12.5118
▁herüb	-12.5118
▁hillary	-12.5118
▁hingeht	-12.5118
▁hinschaut	-12.5118
▁hintereinand	-12.5118
▁hiroshima	-12.5118
▁hiv-infiziert	-12.5118
▁hobby	-12.5118
▁hungern	-12.5118
▁hussein	-12.5118
▁ikea	-12.5118
▁illustrier	-12.5118
▁immunsystems	-12.5118
▁inakzeptabel	-12.5118
▁inbegriff	-12.5118
▁infolgedess	-12.5118
▁innovator	-12.5118
▁irakisch	-12.5118
▁irreführend	-12.5118
▁israelis	-12.5118
▁iss	-12.5118
▁istanbul	-12.5118
▁joey	-12.5118
▁jos	-12.5118
▁jr	-12.5118
▁junior	-12.5118
▁kalkstein	-12.5118
▁kanzi	-12.5118
▁kass	-12.5118
▁kau	-12.5118
▁kenya	-12.5118
▁keyboard	-12.5118
▁kippt	-12.5118
▁kiss	-12.5118
▁klarmach	-12.5118
▁klassik	-12.5118
▁klatscht	-12.5118
▁klecks	-12.5118
▁klügst	-12.5118
▁knet	-12.5118
▁koalition	-12.5118
▁kollaboration	-12.5118
▁kollidier	-12.5118
▁komite	-12.5118
▁kommentier	-12.5118
▁konserviert	-12.5118
▁kontinents	-12.5118
▁kopf-zahl-kopf	-12.5118
▁korb	-12.5118
▁korreliert	-12.5118
▁krankenversicherung	-12.5118
▁kräftig	-12.5118
▁krämpf	-12.5118
▁kult	-12.5118
▁kumm	-12.5118
▁köch	-12.5118
▁laboratori	-12.5118
▁latein	-12.5118
▁lebensrettend	-12.5118
▁leblos	-12.5118
▁legendär	-12.5118
▁leiser	-12.5118
▁leistungsfähiger	-12.5118
▁lenkrad	-12.5118
▁light	-12.5118
▁logos	-12.5118
▁loyalität	-12.5118
▁läßt	-12.5118
▁madison	-12.5118
▁magst	-12.5118
▁main	-12.5118
▁mak	-12.5118
▁marktanteil	-12.5118
▁marokko	-12.5118
▁marschier	-12.5118
▁marshall	-12.5118
▁marx	-12.5118
▁mathematischer	-12.5118
▁maßgeschneidert	-12.5118
▁meerestier	-12.5118
▁mehl	-12.5118
▁mehrheitlich	-12.5118
▁methodik	-12.5118
▁milb	-12.5118
▁milliardär	-12.5118
▁minimier	-12.5118
▁minnesota	-12.5118
▁mittwoch	-12.5118
▁moderator	-12.5118
▁monsun	-12.5118
▁mubarak	-12.5118
▁multikulturell	-12.5118
▁multipliziert	-12.5118
▁musizier	-12.5118
▁nachhinein	-12.5118
▁nachvollziehbar	-12.5118
▁nachzuahm	-12.5118
▁nahaufnahm	-12.5118
▁naheliegend	-12.5118
▁neutron	-12.5118
▁niederschlag	-12.5118
▁nonn	-12.5118
▁now	-12.5118
▁nüss	-12.5118
▁odysseus	-12.5118
▁offic	-12.5118
▁ohio	-12.5118
▁pakistanisch	-12.5118
▁pantheon	-12.5118
▁patentiert	-12.5118
▁personalisierung	-12.5118
▁pfeif	-12.5118
▁pipa	-12.5118
▁plakat	-12.5118
▁platzzell	-12.5118
▁polarisiert	-12.5118
▁posttraumatisch	-12.5118
▁pracht	-12.5118
▁predigt	-12.5118
▁preiswert	-12.5118
▁problemlös	-12.5118
▁produkts	-12.5118
▁programmierung	-12.5118
▁protestiert	-12.5118
▁prozentzahl	-12.5118
▁publikation	-12.5118
▁päckch	-12.5118
▁qualifikation	-12.5118
▁quälend	-12.5118
▁ram	-12.5118
▁ranch	-12.5118
▁rebecca	-12.5118
▁recherchier	-12.5118
▁redwood	-12.5118
▁reflektion	-12.5118
▁reibung	-12.5118
▁rekonstruiert	-12.5118
▁relevanz	-12.5118
▁rentn	-12.5118
▁reproduktion	-12.5118
▁revolutionier	-12.5118
▁revolutioniert	-12.5118
▁rezension	-12.5118
▁rotwein	-12.5118
▁rädern	-12.5118
▁röntg	-12.5118
▁saft	-12.5118
▁sambia	-12.5118
▁sanddün	-12.5118
▁sao	-12.5118
▁scan	-12.5118
▁schachspiel	-12.5118
▁schlepp	-12.5118
▁schlitt	-12.5118
▁schmeiß	-12.5118
▁schnelligkeit	-12.5118
▁schonmal	-12.5118
▁schreibmaschin	-12.5118
▁schrumpft	-12.5118
▁schulbezirk	-12.5118
▁schuldgefühl	-12.5118
▁schwammig	-12.5118
▁schwebend	-12.5118
▁schwellenwert	-12.5118
▁selbstsüchtig	-12.5118
▁seminar	-12.5118
▁singend	-12.5118
▁skalierung	-12.5118
▁skandal	-12.5118
▁sound	-12.5118
▁sozioökonomisch	-12.5118
▁spam	-12.5118
▁spekulation	-12.5118
▁spinnenseid	-12.5118
▁sprachlich	-12.5118
▁spül	-12.5118
▁stadtzentrum	-12.5118
▁steif	-12.5118
▁stellvertretend	-12.5118
▁steuerzahl	-12.5118
▁storycorps	-12.5118
▁strafzettel	-12.5118
▁strohhalm	-12.5118
▁survey	-12.5118
▁symbios	-12.5118
▁synthesiz	-12.5118
▁systemisch	-12.5118
▁südostasi	-12.5118
▁tarahumara	-12.5118
▁tasmani	-12.5118
▁tedx	-12.5118
▁theaterstück	-12.5118
▁tm	-12.5118
▁topf	-12.5118
▁tranc	-12.5118
▁traub	-12.5118
▁triceratops	-12.5118
▁umbruch	-12.5118
▁umdenk	-12.5118
▁umkehrung	-12.5118
▁umlauf	-12.5118
▁umschlag	-12.5118
▁umwandelt	-12.5118
▁unbeschrieben	-12.5118
▁ungarn	-12.5118
▁ungläubig	-12.5118
▁unnatürlich	-12.5118
▁unpassend	-12.5118
▁unschuld	-12.5118
▁unsr	-12.5118
▁unterlag	-12.5118
▁unterteilt	-12.5118
▁uran	-12.5118
▁utopisch	-12.5118
▁vas	-12.5118
▁ventil	-12.5118
▁verblasst	-12.5118
▁verehr	-12.5118
▁vergess	-12.5118
▁verkörpern	-12.5118
▁verkürzt	-12.5118
▁vermarktet	-12.5118
▁verstorb	-12.5118
▁verstädterung	-12.5118
▁verwirklicht	-12.5118
▁viertens	-12.5118
▁vollendet	-12.5118
▁vorauszusag	-12.5118
▁vorgeb	-12.5118
▁vorgefasst	-12.5118
▁vorgefertigt	-12.5118
▁vorrangig	-12.5118
▁vorsätzlich	-12.5118
▁waisenhaus	-12.5118
▁wasserhahn	-12.5118
▁wasserpump	-12.5118
▁wasserverbrauch	-12.5118
▁webcam	-12.5118
▁weblogs	-12.5118
▁wechselnd	-12.5118
▁wegzukomm	-12.5118
▁weibo	-12.5118
▁weiterzugeb	-12.5118
▁weltgrößt	-12.5118
▁weltkriegs	-12.5118
▁wertzuschätz	-12.5118
▁whol	-12.5118
▁widerleg	-12.5118
▁wink	-12.5118
▁wirtschaftskris	-12.5118
▁wohnort	-12.5118
▁währ	-12.5118
▁wärt	-12.5118
▁zeitlang	-12.5118
▁zerbrach	-12.5118
▁zertifikat	-12.5118
▁zugeschrieb	-12.5118
▁zugrundeliegend	-12.5118
▁zurückkommt	-12.5118
▁zusammenfüg	-12.5118
▁zusammenschließ	-12.5118
▁zäun	-12.5118
▁züchtet	-12.5118
▁änder	-12.5118
▁äthiopisch	-12.5118
▁ökolog	-12.5118
▁überarbeitet	-12.5118
▁überdurchschnittlich	-12.5118
▁übereinand	-12.5118
▁überfahr	-12.5118
▁überglücklich	-12.5118
▁übermittelt	-12.5118
▁übernatürlich	-12.5118
▁überprüfbar	-12.5118
▁-moment	-12.5918
▁0,2	-12.5918
▁1,8	-12.5918
▁10-mal	-12.5918
▁14-jährig	-12.5918
▁2014	-12.5918
▁30.	-12.5918
▁600.000	-12.5918
▁67	-12.5918
▁78	-12.5918
▁80.000	-12.5918
▁84	-12.5918
▁88	-12.5918
▁abgebrochen	-12.5918
▁abgelauf	-12.5918
▁ablagerung	-12.5918
▁abschaff	-12.5918
▁abscheulich	-12.5918
▁abstoßend	-12.5918
▁abziel	-12.5918
▁abzubau	-12.5918
▁abzubild	-12.5918
▁abzulehn	-12.5918
▁abzuleit	-12.5918
▁accentur	-12.5918
▁adams	-12.5918
▁addier	-12.5918
▁ahnt	-12.5918
▁akku	-12.5918
▁aktionär	-12.5918
▁aktueller	-12.5918
▁alec	-12.5918
▁alhambra	-12.5918
▁alled	-12.5918
▁almos	-12.5918
▁ampeln	-12.5918
▁andernfalls	-12.5918
▁anfall	-12.5918
▁angefasst	-12.5918
▁angehör	-12.5918
▁angekündigt	-12.5918
▁angemeldet	-12.5918
▁angesammelt	-12.5918
▁anhängern	-12.5918
▁ankündigt	-12.5918
▁anonymität	-12.5918
▁ansatzweis	-12.5918
▁anstand	-12.5918
▁antret	-12.5918
▁anzapf	-12.5918
▁anzustreb	-12.5918
▁anzutreib	-12.5918
▁arbeitsweis	-12.5918
▁arthritis	-12.5918
▁asch	-12.5918
▁astrolabium	-12.5918
▁auf-	-12.5918
▁aufgebracht	-12.5918
▁aufgehängt	-12.5918
▁aufhäng	-12.5918
▁aufkleb	-12.5918
▁aufrechtzuerhalt	-12.5918
▁aufschreib	-12.5918
▁auftrat	-12.5918
▁aufwändig	-12.5918
▁ausgefallen	-12.5918
▁ausgenomm	-12.5918
▁ausländ	-12.5918
▁auslösch	-12.5918
▁ausreich	-12.5918
▁ausschließ	-12.5918
▁aussend	-12.5918
▁austellung	-12.5918
▁ausweich	-12.5918
▁auszubrech	-12.5918
▁automatisiert	-12.5918
▁außenminist	-12.5918
▁bedienung	-12.5918
▁befreiend	-12.5918
▁begab	-12.5918
▁begehrt	-12.5918
▁beharrlichkeit	-12.5918
▁beicht	-12.5918
▁belastbar	-12.5918
▁beleb	-12.5918
▁beleidig	-12.5918
▁beliebter	-12.5918
▁belästigt	-12.5918
▁bereichert	-12.5918
▁berücksichtigung	-12.5918
▁beschließt	-12.5918
▁besorgnis	-12.5918
▁bestens	-12.5918
▁betonung	-12.5918
▁beutelwölf	-12.5918
▁bevölkerungsdicht	-12.5918
▁bewarb	-12.5918
▁bewunderung	-12.5918
▁bewährt	-12.5918
▁bezeug	-12.5918
▁beziehungsweis	-12.5918
▁bildungswes	-12.5918
▁billy	-12.5918
▁biodiversität	-12.5918
▁biomedizinisch	-12.5918
▁birgt	-12.5918
▁bj	-12.5918
▁blauwal	-12.5918
▁blickfeld	-12.5918
▁blocks	-12.5918
▁blogosphär	-12.5918
▁bobby	-12.5918
▁bonni	-12.5918
▁bonobo	-12.5918
▁boy	-12.5918
▁boyl	-12.5918
▁bremst	-12.5918
▁briefkast	-12.5918
▁bronz	-12.5918
▁broschür	-12.5918
▁bruders	-12.5918
▁brustdicht	-12.5918
▁buckminst	-12.5918
▁bürgerrechtsbewegung	-12.5918
▁can	-12.5918
▁charakteristika	-12.5918
▁chefs	-12.5918
▁christi	-12.5918
▁co2-ausstoß	-12.5918
▁coach	-12.5918
▁cornell	-12.5918
▁country	-12.5918
▁cp	-12.5918
▁crack	-12.5918
▁creativ	-12.5918
▁crew	-12.5918
▁dampf	-12.5918
▁darstellend	-12.5918
▁debattier	-12.5918
▁demenz	-12.5918
▁demographi	-12.5918
▁demokratisier	-12.5918
▁demütigend	-12.5918
▁denkmal	-12.5918
▁dia	-12.5918
▁dialekt	-12.5918
▁diaspora	-12.5918
▁diskett	-12.5918
▁drak	-12.5918
▁drehbuch	-12.5918
▁droh	-12.5918
▁duk	-12.5918
▁durchquer	-12.5918
▁eigenart	-12.5918
▁einbaut	-12.5918
▁einfallsreichtum	-12.5918
▁eingefror	-12.5918
▁eingegang	-12.5918
▁einnimmt	-12.5918
▁einschränk	-12.5918
▁einstieg	-12.5918
▁einwandfrei	-12.5918
▁eizell	-12.5918
▁eklig	-12.5918
▁elvis	-12.5918
▁emmanuel	-12.5918
▁empfohl	-12.5918
▁empfängt	-12.5918
▁energiebedarf	-12.5918
▁energiemeng	-12.5918
▁energiesystem	-12.5918
▁entbindung	-12.5918
▁entfach	-12.5918
▁entfalt	-12.5918
▁entspannung	-12.5918
▁entstellt	-12.5918
▁enttäuschend	-12.5918
▁entworfen	-12.5918
▁epilepsi	-12.5918
▁episod	-12.5918
▁erarbeitet	-12.5918
▁erfahrener	-12.5918
▁erhofft	-12.5918
▁ermächtig	-12.5918
▁erstellung	-12.5918
▁erstickt	-12.5918
▁erzählst	-12.5918
▁exxon	-12.5918
▁fachzeitschrift	-12.5918
▁fahrspur	-12.5918
▁faltmust	-12.5918
▁familiär	-12.5918
▁feindselig	-12.5918
▁feindseligkeit	-12.5918
▁fernsehsend	-12.5918
▁festung	-12.5918
▁feuchtgebiet	-12.5918
▁first	-12.5918
▁football	-12.5918
▁freisetz	-12.5918
▁freundinn	-12.5918
▁friedensprozess	-12.5918
▁friedhof	-12.5918
▁frühzeitig	-12.5918
▁funktionsfähig	-12.5918
▁gb	-12.5918
▁gedankenexperiment	-12.5918
▁gefeuert	-12.5918
▁gehts	-12.5918
▁geisteskrank	-12.5918
▁gekrümmt	-12.5918
▁gelöscht	-12.5918
▁gemocht	-12.5918
▁geradewegs	-12.5918
▁geringfügig	-12.5918
▁gerührt	-12.5918
▁geschlechtsspezifisch	-12.5918
▁geschmeidig	-12.5918
▁geschmolzen	-12.5918
▁geschob	-12.5918
▁geschockt	-12.5918
▁geschrumpft	-12.5918
▁geschwollen	-12.5918
▁geschäftig	-12.5918
▁geschäftsleb	-12.5918
▁gesellig	-12.5918
▁gespült	-12.5918
▁gestein	-12.5918
▁gewasch	-12.5918
▁geäußert	-12.5918
▁glaubhaft	-12.5918
▁glaubwürdig	-12.5918
▁gläs	-12.5918
▁glühend	-12.5918
▁gnad	-12.5918
▁good	-12.5918
▁googeln	-12.5918
▁gorillas	-12.5918
▁gral	-12.5918
▁grausamkeit	-12.5918
▁greg	-12.5918
▁großmütt	-12.5918
▁großstadt	-12.5918
▁grundversorgung	-12.5918
▁grübeln	-12.5918
▁hahn	-12.5918
▁haltet	-12.5918
▁handwerklich	-12.5918
▁hauptgründ	-12.5918
▁hautzell	-12.5918
▁hc	-12.5918
▁heiter	-12.5918
▁heizung	-12.5918
▁hel	-12.5918
▁herauf	-12.5918
▁herausgegeben	-12.5918
▁herausnehm	-12.5918
▁herauszukomm	-12.5918
▁herbeizuführ	-12.5918
▁hervorbringt	-12.5918
▁higgs-boson	-12.5918
▁hillis	-12.5918
▁hinfahr	-12.5918
▁hirnrind	-12.5918
▁hirnstamm	-12.5918
▁hmmm	-12.5918
▁hochgradig	-12.5918
▁hochmodern	-12.5918
▁holland	-12.5918
▁hongkong	-12.5918
▁höchstens	-12.5918
▁illinois	-12.5918
▁imam	-12.5918
▁implizit	-12.5918
▁incra	-12.5918
▁independent	-12.5918
▁individualität	-12.5918
▁industriestaat	-12.5918
▁informant	-12.5918
▁internetverbindung	-12.5918
▁irisch	-12.5918
▁italien	-12.5918
▁jarrett	-12.5918
▁jess	-12.5918
▁jet	-12.5918
▁jordani	-12.5918
▁journalistin	-12.5918
▁js	-12.5918
▁judy	-12.5918
▁jury	-12.5918
▁k.	-12.5918
▁kabeln	-12.5918
▁kameramann	-12.5918
▁kapitals	-12.5918
▁kennst	-12.5918
▁khm	-12.5918
▁kinderarbeit	-12.5918
▁kindererziehung	-12.5918
▁klost	-12.5918
▁klugheit	-12.5918
▁kollegin	-12.5918
▁komik	-12.5918
▁kommentiert	-12.5918
▁kommunikationssystem	-12.5918
▁konflikts	-12.5918
▁konsistent	-12.5918
▁konsums	-12.5918
▁kontaktier	-12.5918
▁konto	-12.5918
▁kopfhör	-12.5918
▁korn	-12.5918
▁kosmolog	-12.5918
▁kostüm	-12.5918
▁krück	-12.5918
▁kubanisch	-12.5918
▁kupf	-12.5918
▁kutsch	-12.5918
▁köchin	-12.5918
▁königinn	-12.5918
▁küchentisch	-12.5918
▁landesteil	-12.5918
▁laparoskopisch	-12.5918
▁latrin	-12.5918
▁lauert	-12.5918
▁lauscht	-12.5918
▁letzter	-12.5918
▁lichtempfindlich	-12.5918
▁lieferung	-12.5918
▁lik	-12.5918
▁lineal	-12.5918
▁lisa	-12.5918
▁losgeh	-12.5918
▁losgelöst	-12.5918
▁lynn	-12.5918
▁manchest	-12.5918
▁mangelhaft	-12.5918
▁mantel	-12.5918
▁mao	-12.5918
▁massenmedi	-12.5918
▁meditiert	-12.5918
▁mentalität	-12.5918
▁metastas	-12.5918
▁mikrophon	-12.5918
▁mikrosekund	-12.5918
▁mind-wandering	-12.5918
▁ministerpräsident	-12.5918
▁mississippi	-12.5918
▁missouri	-12.5918
▁mitchell	-12.5918
▁miterlebt	-12.5918
▁mitmacht	-12.5918
▁mittelme	-12.5918
▁modernst	-12.5918
▁modular	-12.5918
▁monarchi	-12.5918
▁mongolei	-12.5918
▁moos	-12.5918
▁mrs.	-12.5918
▁muess	-12.5918
▁multiversum	-12.5918
▁muscheln	-12.5918
▁männlichkeit	-12.5918
▁nachhaltiger	-12.5918
▁nachsicht	-12.5918
▁nachzuvollzieh	-12.5918
▁nahrhaft	-12.5918
▁nahrungsmitteln	-12.5918
▁nerds	-12.5918
▁neurochirurg	-12.5918
▁neurotransmitt	-12.5918
▁ng	-12.5918
▁nicht-nullsummenspiel	-12.5918
▁nichtlinear	-12.5918
▁nollywood	-12.5918
▁nomad	-12.5918
▁notfall	-12.5918
▁nächstenlieb	-12.5918
▁nützt	-12.5918
▁palästinens	-12.5918
▁paradoxerweis	-12.5918
▁parat	-12.5918
▁parti	-12.5918
▁passion	-12.5918
▁penny	-12.5918
▁perl	-12.5918
▁pfann	-12.5918
▁pharmazeutisch	-12.5918
▁photo	-12.5918
▁potenz	-12.5918
▁pragmatisch	-12.5918
▁pressekonferenz	-12.5918
▁produzierend	-12.5918
▁protagonist	-12.5918
▁psychos	-12.5918
▁psychosozial	-12.5918
▁pullov	-12.5918
▁punktzahl	-12.5918
▁pädagog	-12.5918
▁quadrier	-12.5918
▁quietscht	-12.5918
▁radius	-12.5918
▁radweg	-12.5918
▁rassistisch	-12.5918
▁rationalität	-12.5918
▁raup	-12.5918
▁rd	-12.5918
▁reaktiv	-12.5918
▁realisierbar	-12.5918
▁rednern	-12.5918
▁reed	-12.5918
▁regl	-12.5918
▁rekursiv	-12.5918
▁relativität	-12.5918
▁reportag	-12.5918
▁repräsentant	-12.5918
▁resistenz	-12.5918
▁resultierend	-12.5918
▁rhex	-12.5918
▁rhyth-ma	-12.5918
▁ritt	-12.5918
▁rosig	-12.5918
▁rotierend	-12.5918
▁rückt	-12.5918
▁rüstung	-12.5918
▁sachverhalt	-12.5918
▁sandkorn	-12.5918
▁saugt	-12.5918
▁saur	-12.5918
▁scheck	-12.5918
▁scheid	-12.5918
▁scheinwerf	-12.5918
▁schenkel	-12.5918
▁schlüpf	-12.5918
▁schob	-12.5918
▁schulung	-12.5918
▁schwarz-weiß	-12.5918
▁schwarzafrika	-12.5918
▁schwefel	-12.5918
▁schwächst	-12.5918
▁schädig	-12.5918
▁schütt	-12.5918
▁scratch	-12.5918
▁sechseinhalb	-12.5918
▁sehbehindert	-12.5918
▁shows	-12.5918
▁sichergeh	-12.5918
▁sid	-12.5918
▁skat	-12.5918
▁snow	-12.5918
▁soja	-12.5918
▁solarbetrieben	-12.5918
▁solomon	-12.5918
▁sorgfalt	-12.5918
▁spannweit	-12.5918
▁spekulier	-12.5918
▁sperma	-12.5918
▁spiegelbild	-12.5918
▁spiegelung	-12.5918
▁spieldynamik	-12.5918
▁sprüh	-12.5918
▁spürbar	-12.5918
▁stand-up	-12.5918
▁stapelt	-12.5918
▁stars	-12.5918
▁steak	-12.5918
▁steigung	-12.5918
▁steinig	-12.5918
▁stellenwert	-12.5918
▁sticht	-12.5918
▁streitigkeit	-12.5918
▁studios	-12.5918
▁stumpf	-12.5918
▁stärkung	-12.5918
▁subjekt	-12.5918
[...]
